{
  "<pad>": 0,
  "<bos>": 1,
  "<eos>": 2,
  "<unk>": 3,
  "!": 4,
  "\"": 5,
  "#": 6,
  "$": 7,
  "%": 8,
  "&": 9,
  "'": 10,
  "(": 11,
  ")": 12,
  "*": 13,
  "+": 14,
  ",": 15,
  "-": 16,
  ".": 17,
  "/": 18,
  "0": 19,
  "1": 20,
  "2": 21,
  "3": 22,
  "4": 23,
  "5": 24,
  "6": 25,
  "7": 26,
  "8": 27,
  "9": 28,
  ":": 29,
  ";": 30,
  "<": 31,
  "=": 32,
  ">": 33,
  "?": 34,
  "@": 35,
  "A": 36,
  "B": 37,
  "C": 38,
  "D": 39,
  "E": 40,
  "F": 41,
  "G": 42,
  "H": 43,
  "I": 44,
  "J": 45,
  "K": 46,
  "L": 47,
  "M": 48,
  "N": 49,
  "O": 50,
  "P": 51,
  "Q": 52,
  "R": 53,
  "S": 54,
  "T": 55,
  "U": 56,
  "V": 57,
  "W": 58,
  "X": 59,
  "Y": 60,
  "Z": 61,
  "[": 62,
  "\\": 63,
  "]": 64,
  "^": 65,
  "_": 66,
  "`": 67,
  "a": 68,
  "b": 69,
  "c": 70,
  "d": 71,
  "e": 72,
  "f": 73,
  "g": 74,
  "h": 75,
  "i": 76,
  "j": 77,
  "k": 78,
  "l": 79,
  "m": 80,
  "n": 81,
  "o": 82,
  "p": 83,
  "q": 84,
  "r": 85,
  "s": 86,
  "t": 87,
  "u": 88,
  "v": 89,
  "w": 90,
  "x": 91,
  "y": 92,
  "z": 93,
  "{": 94,
  "|": 95,
  "}": 96,
  "~": 97,
  "¡": 98,
  "¢": 99,
  "£": 100,
  "¤": 101,
  "¥": 102,
  "¦": 103,
  "§": 104,
  "¨": 105,
  "©": 106,
  "ª": 107,
  "«": 108,
  "¬": 109,
  "®": 110,
  "¯": 111,
  "°": 112,
  "±": 113,
  "²": 114,
  "³": 115,
  "´": 116,
  "µ": 117,
  "¶": 118,
  "·": 119,
  "¸": 120,
  "¹": 121,
  "º": 122,
  "»": 123,
  "¼": 124,
  "½": 125,
  "¾": 126,
  "¿": 127,
  "À": 128,
  "Á": 129,
  "Â": 130,
  "Ã": 131,
  "Ä": 132,
  "Å": 133,
  "Æ": 134,
  "Ç": 135,
  "È": 136,
  "É": 137,
  "Ê": 138,
  "Ë": 139,
  "Ì": 140,
  "Í": 141,
  "Î": 142,
  "Ï": 143,
  "Ð": 144,
  "Ñ": 145,
  "Ò": 146,
  "Ó": 147,
  "Ô": 148,
  "Õ": 149,
  "Ö": 150,
  "×": 151,
  "Ø": 152,
  "Ù": 153,
  "Ú": 154,
  "Û": 155,
  "Ü": 156,
  "Ý": 157,
  "Þ": 158,
  "ß": 159,
  "à": 160,
  "á": 161,
  "â": 162,
  "ã": 163,
  "ä": 164,
  "å": 165,
  "æ": 166,
  "ç": 167,
  "è": 168,
  "é": 169,
  "ê": 170,
  "ë": 171,
  "ì": 172,
  "í": 173,
  "î": 174,
  "ï": 175,
  "ð": 176,
  "ñ": 177,
  "ò": 178,
  "ó": 179,
  "ô": 180,
  "õ": 181,
  "ö": 182,
  "÷": 183,
  "ø": 184,
  "ù": 185,
  "ú": 186,
  "û": 187,
  "ü": 188,
  "ý": 189,
  "þ": 190,
  "ÿ": 191,
  "Ā": 192,
  "ā": 193,
  "Ă": 194,
  "ă": 195,
  "Ą": 196,
  "ą": 197,
  "Ć": 198,
  "ć": 199,
  "Ĉ": 200,
  "ĉ": 201,
  "Ċ": 202,
  "ċ": 203,
  "Č": 204,
  "č": 205,
  "Ď": 206,
  "ď": 207,
  "Đ": 208,
  "đ": 209,
  "Ē": 210,
  "ē": 211,
  "Ĕ": 212,
  "ĕ": 213,
  "Ė": 214,
  "ė": 215,
  "Ę": 216,
  "ę": 217,
  "Ě": 218,
  "ě": 219,
  "Ĝ": 220,
  "ĝ": 221,
  "Ğ": 222,
  "ğ": 223,
  "Ġ": 224,
  "ġ": 225,
  "Ģ": 226,
  "ģ": 227,
  "Ĥ": 228,
  "ĥ": 229,
  "Ħ": 230,
  "ħ": 231,
  "Ĩ": 232,
  "ĩ": 233,
  "Ī": 234,
  "ī": 235,
  "Ĭ": 236,
  "ĭ": 237,
  "Į": 238,
  "į": 239,
  "İ": 240,
  "ı": 241,
  "Ĳ": 242,
  "ĳ": 243,
  "Ĵ": 244,
  "ĵ": 245,
  "Ķ": 246,
  "ķ": 247,
  "ĸ": 248,
  "Ĺ": 249,
  "ĺ": 250,
  "Ļ": 251,
  "ļ": 252,
  "Ľ": 253,
  "ľ": 254,
  "Ŀ": 255,
  "ŀ": 256,
  "Ł": 257,
  "ł": 258,
  "Ń": 259,
  "th": 260,
  "in": 261,
  "er": 262,
  "the": 263,
  "an": 264,
  "on": 265,
  "en": 266,
  "at": 267,
  "re": 268,
  "ed": 269,
  "or": 270,
  "st": 271,
  "ar": 272,
  "al": 273,
  "of": 274,
  "ou": 275,
  "to": 276,
  "is": 277,
  "as": 278,
  "es": 279,
  "and": 280,
  "ing": 281,
  "it": 282,
  "ic": 283,
  "ion": 284,
  "he": 285,
  "il": 286,
  "om": 287,
  "ent": 288,
  "le": 289,
  "ch": 290,
  "id": 291,
  "ad": 292,
  "se": 293,
  "be": 294,
  "ay": 295,
  "ro": 296,
  "for": 297,
  "ol": 298,
  "ve": 299,
  "ac": 300,
  "ly": 301,
  "am": 302,
  "un": 303,
  "wh": 304,
  "ers": 305,
  "The": 306,
  "ir": 307,
  "ation": 308,
  "ig": 309,
  "ur": 310,
  "ill": 311,
  "el": 312,
  "ow": 313,
  "that": 314,
  "im": 315,
  "ot": 316,
  "et": 317,
  "ag": 318,
  "``": 319,
  "ere": 320,
  "ut": 321,
  "was": 322,
  "res": 323,
  "ith": 324,
  "''": 325,
  "ct": 326,
  "ce": 327,
  "ver": 328,
  "con": 329,
  "'s": 330,
  "em": 331,
  "all": 332,
  "ne": 333,
  "with": 334,
  "ld": 335,
  "pro": 336,
  "ter": 337,
  "are": 338,
  "ate": 339,
  "pl": 340,
  "ri": 341,
  "com": 342,
  "oun": 343,
  "ul": 344,
  "by": 345,
  "op": 346,
  "ab": 347,
  "de": 348,
  "su": 349,
  "te": 350,
  "igh": 351,
  "ear": 352,
  "sa": 353,
  "ist": 354,
  "ment": 355,
  "his": 356,
  "ex": 357,
  "day": 358,
  "ore": 359,
  "out": 360,
  "us": 361,
  "man": 362,
  "fr": 363,
  "ard": 364,
  "ap": 365,
  "Mr": 366,
  "our": 367,
  "os": 368,
  "ain": 369,
  "ast": 370,
  "ant": 371,
  "ould": 372,
  "li": 373,
  "said": 374,
  "ther": 375,
  "art": 376,
  "will": 377,
  "oc": 378,
  "pe": 379,
  "00": 380,
  "est": 381,
  "ity": 382,
  "ke": 383,
  "sh": 384,
  "end": 385,
  "qu": 386,
  "ess": 387,
  "tr": 388,
  "from": 389,
  "one": 390,
  "ight": 391,
  "iv": 392,
  "ies": 393,
  "od": 394,
  "ich": 395,
  "gh": 396,
  "ort": 397,
  "has": 398,
  "ive": 399,
  "we": 400,
  "ha": 401,
  "year": 402,
  "if": 403,
  "not": 404,
  "act": 405,
  "ge": 406,
  "pr": 407,
  "ome": 408,
  "who": 409,
  "--": 410,
  "gr": 411,
  "over": 412,
  "cl": 413,
  "19": 414,
  "ach": 415,
  "per": 416,
  "ary": 417,
  "mer": 418,
  "had": 419,
  "ust": 420,
  "af": 421,
  "up": 422,
  "ong": 423,
  "ub": 424,
  "ud": 425,
  "have": 426,
  "St": 427,
  "ack": 428,
  "wor": 429,
  "ans": 430,
  "Mrs": 431,
  "were": 432,
  "der": 433,
  "this": 434,
  "would": 435,
  "ice": 436,
  "ial": 437,
  "which": 438,
  "me": 439,
  "ta": 440,
  "ost": 441,
  "bo": 442,
  "ber": 443,
  "In": 444,
  "ie": 445,
  "off": 446,
  "so": 447,
  "um": 448,
  "but": 449,
  "other": 450,
  "its": 451,
  "ident": 452,
  "wo": 453,
  "Th": 454,
  "their": 455,
  "He": 456,
  "pres": 457,
  "fe": 458,
  "aw": 459,
  "port": 460,
  "ough": 461,
  "fir": 462,
  "ip": 463,
  "int": 464,
  "they": 465,
  "been": 466,
  "ll": 467,
  "ire": 468,
  "ned": 469,
  "ok": 470,
  "au": 471,
  "ous": 472,
  "ven": 473,
  "ass": 474,
  "br": 475,
  "ame": 476,
  "any": 477,
  "ell": 478,
  "new": 479,
  "ind": 480,
  "ence": 481,
  "ated": 482,
  "own": 483,
  "Ch": 484,
  "ure": 485,
  "comp": 486,
  "att": 487,
  "ek": 488,
  "ction": 489,
  "cre": 490,
  "more": 491,
  "tim": 492,
  "cent": 493,
  "ma": 494,
  "av": 495,
  "ep": 496,
  "sp": 497,
  "ine": 498,
  "two": 499,
  "last": 500,
  "ty": 501,
  "iss": 502,
  "ble": 503,
  "pos": 504,
  "ade": 505,
  "mon": 506,
  "uc": 507,
  "ue": 508,
  "iz": 509,
  "str": 510,
  "coun": 511,
  "ree": 512,
  "age": 513,
  "min": 514,
  "ton": 515,
  "old": 516,
  "no": 517,
  "ser": 518,
  "ally": 519,
  "do": 520,
  "cho": 521,
  "ound": 522,
  "lo": 523,
  "go": 524,
  "ick": 525,
  "co": 526,
  "ors": 527,
  "An": 528,
  "ef": 529,
  "ict": 530,
  "ide": 531,
  "ish": 532,
  "after": 533,
  "cor": 534,
  "son": 535,
  "ions": 536,
  "air": 537,
  "first": 538,
  "Ne": 539,
  "ia": 540,
  "part": 541,
  "than": 542,
  "there": 543,
  "ates": 544,
  "ign": 545,
  "ob": 546,
  "ase": 547,
  "ile": 548,
  "comm": 549,
  "pre": 550,
  "ry": 551,
  "under": 552,
  "Un": 553,
  "ts": 554,
  "ations": 555,
  "her": 556,
  "ph": 557,
  "tri": 558,
  "can": 559,
  "spe": 560,
  "work": 561,
  "Com": 562,
  "ose": 563,
  "ran": 564,
  "It": 565,
  "lic": 566,
  "fore": 567,
  "about": 568,
  "now": 569,
  "ann": 570,
  "chool": 571,
  "home": 572,
  "ever": 573,
  "ite": 574,
  "able": 575,
  "week": 576,
  "ational": 577,
  "ild": 578,
  "000": 579,
  "pt": 580,
  "ian": 581,
  "some": 582,
  "when": 583,
  "play": 584,
  "mar": 585,
  "Wh": 586,
  "ouse": 587,
  "ition": 588,
  "ace": 589,
  "resident": 590,
  "istr": 591,
  "ublic": 592,
  "col": 593,
  "pol": 594,
  "Mar": 595,
  "ail": 596,
  "eral": 597,
  "also": 598,
  "ball": 599,
  "get": 600,
  "che": 601,
  "mem": 602,
  "them": 603,
  "ult": 604,
  "time": 605,
  "car": 606,
  "ds": 607,
  "dis": 608,
  "low": 609,
  "three": 610,
  "ock": 611,
  "him": 612,
  "into": 613,
  "ens": 614,
  "overn": 615,
  "app": 616,
  "But": 617,
  "ced": 618,
  "school": 619,
  "Jo": 620,
  "ak": 621,
  "ied": 622,
  "run": 623,
  "cted": 624,
  "cont": 625,
  "President": 626,
  "land": 627,
  "way": 628,
  "Le": 629,
  "row": 630,
  "again": 631,
  "Comm": 632,
  "med": 633,
  "ings": 634,
  "New": 635,
  "back": 636,
  "made": 637,
  "ical": 638,
  "most": 639,
  "ory": 640,
  "itt": 641,
  "lat": 642,
  "urn": 643,
  "ons": 644,
  "state": 645,
  "ited": 646,
  "years": 647,
  "only": 648,
  "serv": 649,
  "Amer": 650,
  "ev": 651,
  "Americ": 652,
  "ance": 653,
  "bl": 654,
  "four": 655,
  "hn": 656,
  "high": 657,
  "ov": 658,
  "196": 659,
  "tax": 660,
  "gre": 661,
  "ash": 662,
  "ele": 663,
  "how": 664,
  "set": 665,
  "meet": 666,
  "Al": 667,
  "cour": 668,
  "du": 669,
  "iel": 670,
  "prov": 671,
  "ren": 672,
  "inn": 673,
  "amp": 674,
  "'t": 675,
  "let": 676,
  "vel": 677,
  "fer": 678,
  "gan": 679,
  "law": 680,
  "ern": 681,
  "ents": 682,
  "lead": 683,
  "ress": 684,
  "ivers": 685,
  "As": 686,
  "des": 687,
  "fin": 688,
  "pay": 689,
  "head": 690,
  "could": 691,
  "ious": 692,
  "sc": 693,
  "add": 694,
  "ful": 695,
  "tain": 696,
  "month": 697,
  "John": 698,
  "bers": 699,
  "lar": 700,
  "men": 701,
  "oy": 702,
  "si": 703,
  "als": 704,
  "come": 705,
  "tee": 706,
  "iet": 707,
  "oint": 708,
  "vis": 709,
  "195": 710,
  "bill": 711,
  "king": 712,
  "rit": 713,
  "sel": 714,
  "before": 715,
  "overnment": 716,
  "leg": 717,
  "plan": 718,
  "present": 719,
  "Ken": 720,
  "cess": 721,
  "ked": 722,
  "tal": 723,
  "ince": 724,
  "ily": 725,
  "bet": 726,
  "form": 727,
  "what": 728,
  "10": 729,
  "cer": 730,
  "you": 731,
  "arm": 732,
  "par": 733,
  "sal": 734,
  "oup": 735,
  "ason": 736,
  "aid": 737,
  "ces": 738,
  "ger": 739,
  "gen": 740,
  "ual": 741,
  "ittee": 742,
  "gram": 743,
  "aff": 744,
  "ield": 745,
  "Ar": 746,
  "At": 747,
  "bu": 748,
  "gu": 749,
  "sy": 750,
  "program": 751,
  "did": 752,
  "down": 753,
  "ks": 754,
  "night": 755,
  "ins": 756,
  "where": 757,
  "nedy": 758,
  "ministr": 759,
  "against": 760,
  "Kennedy": 761,
  "thr": 762,
  "ury": 763,
  "Co": 764,
  "inter": 765,
  "read": 766,
  "need": 767,
  "La": 768,
  "cut": 769,
  "cial": 770,
  "pit": 771,
  "report": 772,
  "cond": 773,
  "oper": 774,
  "members": 775,
  "House": 776,
  "bus": 777,
  "fact": 778,
  "may": 779,
  "pers": 780,
  "ret": 781,
  "iversity": 782,
  "each": 783,
  "even": 784,
  "national": 785,
  "ward": 786,
  "road": 787,
  "sub": 788,
  "American": 789,
  "Cong": 790,
  "Mon": 791,
  "call": 792,
  "je": 793,
  "lay": 794,
  "ra": 795,
  "vot": 796,
  "eng": 797,
  "ise": 798,
  "bec": 799,
  "ames": 800,
  "ments": 801,
  "led": 802,
  "rat": 803,
  "uring": 804,
  "This": 805,
  "lin": 806,
  "ues": 807,
  "stud": 808,
  "ities": 809,
  "char": 810,
  "such": 811,
  "Miss": 812,
  "stand": 813,
  "ants": 814,
  "offic": 815,
  "colle": 816,
  "Coun": 817,
  "Ro": 818,
  "Sen": 819,
  "uch": 820,
  "urch": 821,
  "ement": 822,
  "cord": 823,
  "through": 824,
  "Fran": 825,
  "May": 826,
  "Will": 827,
  "hand": 828,
  "here": 829,
  "xt": 830,
  "start": 831,
  "child": 832,
  "ester": 833,
  "ministration": 834,
  "Sun": 835,
  "We": 836,
  "ington": 837,
  "They": 838,
  "many": 839,
  "Tex": 840,
  "les": 841,
  "my": 842,
  "pass": 843,
  "public": 844,
  "ating": 845,
  "ord": 846,
  "riv": 847,
  "libr": 848,
  "should": 849,
  "Con": 850,
  "fam": 851,
  "then": 852,
  "ater": 853,
  "rece": 854,
  "board": 855,
  "Rep": 856,
  "fun": 857,
  "got": 858,
  "iam": 859,
  "well": 860,
  "stem": 861,
  "enter": 862,
  "lear": 863,
  "cons": 864,
  "like": 865,
  "State": 866,
  "dire": 867,
  "government": 868,
  "rem": 869,
  "ago": 870,
  "sup": 871,
  "meeting": 872,
  "Se": 873,
  "field": 874,
  "ged": 875,
  "game": 876,
  "io": 877,
  "ove": 878,
  "since": 879,
  "ense": 880,
  "ork": 881,
  "cts": 882,
  "ared": 883,
  "ush": 884,
  "There": 885,
  "president": 886,
  "ause": 887,
  "She": 888,
  "ff": 889,
  "long": 890,
  "say": 891,
  "ank": 892,
  "open": 893,
  "dec": 894,
  "quest": 895,
  "ought": 896,
  "firm": 897,
  "25": 898,
  "ped": 899,
  "ting": 900,
  "thing": 901,
  "these": 902,
  "red": 903,
  "emoc": 904,
  "good": 905,
  "And": 906,
  "Ge": 907,
  "ood": 908,
  "yester": 909,
  "those": 910,
  "ird": 911,
  "proble": 912,
  "iew": 913,
  "United": 914,
  "problem": 915,
  "18": 916,
  "Col": 917,
  "De": 918,
  "Pal": 919,
  "ath": 920,
  "cy": 921,
  "mill": 922,
  "vol": 923,
  "today": 924,
  "ices": 925,
  "ution": 926,
  "ople": 927,
  "ession": 928,
  "try": 929,
  "system": 930,
  "Monday": 931,
  "emocrat": 932,
  "yesterday": 933,
  "Democrat": 934,
  "cur": 935,
  "city": 936,
  "just": 937,
  "jury": 938,
  "incl": 939,
  "ery": 940,
  "ched": 941,
  "being": 942,
  "both": 943,
  "augh": 944,
  "announ": 945,
  "sales": 946,
  "12": 947,
  "Fr": 948,
  "during": 949,
  "mat": 950,
  "sl": 951,
  "view": 952,
  "rel": 953,
  "hel": 954,
  "chan": 955,
  "unt": 956,
  "erest": 957,
  "team": 958,
  "group": 959,
  "Sunday": 960,
  "15": 961,
  "Dall": 962,
  "York": 963,
  "bon": 964,
  "dr": 965,
  "ner": 966,
  "sing": 967,
  "ug": 968,
  "iness": 969,
  "ative": 970,
  "ederal": 971,
  "told": 972,
  "administration": 973,
  "vest": 974,
  "children": 975,
  "30": 976,
  "Par": 977,
  "Sou": 978,
  "fl": 979,
  "ft": 980,
  "ier": 981,
  "put": 982,
  "soc": 983,
  "ley": 984,
  "room": 985,
  "expe": 986,
  "people": 987,
  "interest": 988,
  "velop": 989,
  "Dallas": 990,
  "Bo": 991,
  "Mant": 992,
  "Nor": 993,
  "Ste": 994,
  "Wash": 995,
  "bas": 996,
  "big": 997,
  "loc": 998,
  "stat": 999,
  "take": 1000,
  "ission": 1001,
  "Commun": 1002,
  "Geor": 1003,
  "Mantle": 1004,
  "20": 1005,
  "Dr": 1006,
  "ck": 1007,
  "ior": 1008,
  "less": 1009,
  "must": 1010,
  "ten": 1011,
  "reg": 1012,
  "season": 1013,
  "otel": 1014,
  "ctor": 1015,
  "used": 1016,
  "show": 1017,
  "because": 1018,
  "Texas": 1019,
  "Ph": 1020,
  "cil": 1021,
  "much": 1022,
  "point": 1023,
  "erv": 1024,
  "stit": 1025,
  "while": 1026,
  "ploy": 1027,
  "def": 1028,
  "ended": 1029,
  "tract": 1030,
  "mark": 1031,
  "William": 1032,
  "Republic": 1033,
  "Washington": 1034,
  "West": 1035,
  "ges": 1036,
  "hit": 1037,
  "house": 1038,
  "she": 1039,
  "issu": 1040,
  "without": 1041,
  "ired": 1042,
  "company": 1043,
  "special": 1044,
  "bor": 1045,
  "cr": 1046,
  "equ": 1047,
  "fol": 1048,
  "kes": 1049,
  "sm": 1050,
  "ted": 1051,
  "ste": 1052,
  "chair": 1053,
  "ague": 1054,
  "employ": 1055,
  "ney": 1056,
  "oung": 1057,
  "ship": 1058,
  "ween": 1059,
  "world": 1060,
  "business": 1061,
  "Palmer": 1062,
  "Gen": 1063,
  "Jr": 1064,
  "five": 1065,
  "hour": 1066,
  "ians": 1067,
  "know": 1068,
  "ole": 1069,
  "ink": 1070,
  "ered": 1071,
  "took": 1072,
  "iday": 1073,
  "imp": 1074,
  "test": 1075,
  "possi": 1076,
  "ucation": 1077,
  "between": 1078,
  "Mc": 1079,
  "On": 1080,
  "Re": 1081,
  "dri": 1082,
  "hal": 1083,
  "iation": 1084,
  "ral": 1085,
  "incre": 1086,
  "ator": 1087,
  "atur": 1088,
  "see": 1089,
  "ctive": 1090,
  "produ": 1091,
  "develop": 1092,
  "ospit": 1093,
  "ending": 1094,
  "cret": 1095,
  "ized": 1096,
  "build": 1097,
  "million": 1098,
  "Cl": 1099,
  "For": 1100,
  "cost": 1101,
  "den": 1102,
  "giv": 1103,
  "mil": 1104,
  "right": 1105,
  "went": 1106,
  "arn": 1107,
  "islat": 1108,
  "propos": 1109,
  "ular": 1110,
  "abor": 1111,
  "bert": 1112,
  "effor": 1113,
  "University": 1114,
  "City": 1115,
  "Har": 1116,
  "Tues": 1117,
  "base": 1118,
  "fac": 1119,
  "use": 1120,
  "held": 1121,
  "ility": 1122,
  "left": 1123,
  "cept": 1124,
  "very": 1125,
  "ific": 1126,
  "1960": 1127,
  "1961": 1128,
  "ference": 1129,
  "self": 1130,
  "family": 1131,
  "follow": 1132,
  "Tuesday": 1133,
  "ave": 1134,
  "det": 1135,
  "ards": 1136,
  "make": 1137,
  "look": 1138,
  "election": 1139,
  "months": 1140,
  "Friday": 1141,
  "13": 1142,
  "National": 1143,
  "Sh": 1144,
  "came": 1145,
  "dou": 1146,
  "ness": 1147,
  "ves": 1148,
  "reet": 1149,
  "ently": 1150,
  "ided": 1151,
  "second": 1152,
  "ros": 1153,
  "never": 1154,
  "exp": 1155,
  "uss": 1156,
  "States": 1157,
  "uck": 1158,
  "committee": 1159,
  "member": 1160,
  "called": 1161,
  "expected": 1162,
  "ospital": 1163,
  "ather": 1164,
  "ken": 1165,
  "lish": 1166,
  "mor": 1167,
  "might": 1168,
  "rush": 1169,
  "ving": 1170,
  "young": 1171,
  "record": 1172,
  "organ": 1173,
  "tow": 1174,
  "ics": 1175,
  "rol": 1176,
  "early": 1177,
  "ife": 1178,
  "ified": 1179,
  "club": 1180,
  "maj": 1181,
  "When": 1182,
  "White": 1183,
  "person": 1184,
  "Communist": 1185,
  "half": 1186,
  "11": 1187,
  "Tr": 1188,
  "bro": 1189,
  "bur": 1190,
  "far": 1191,
  "ib": 1192,
  "la": 1193,
  "ling": 1194,
  "late": 1195,
  "ures": 1196,
  "another": 1197,
  "top": 1198,
  "idence": 1199,
  "unity": 1200,
  "next": 1201,
  "area": 1202,
  "sum": 1203,
  "expl": 1204,
  "manag": 1205,
  "udge": 1206,
  "polit": 1207,
  "Maris": 1208,
  "Democratic": 1209,
  "includ": 1210,
  "local": 1211,
  "Cor": 1212,
  "Gr": 1213,
  "Hu": 1214,
  "Play": 1215,
  "cand": 1216,
  "del": 1217,
  "gest": 1218,
  "hon": 1219,
  "past": 1220,
  "rest": 1221,
  "ism": 1222,
  "roll": 1223,
  "agre": 1224,
  "emp": 1225,
  "near": 1226,
  "dep": 1227,
  "ained": 1228,
  "Char": 1229,
  "stru": 1230,
  "effe": 1231,
  "help": 1232,
  "Bl": 1233,
  "Pr": 1234,
  "ient": 1235,
  "turn": 1236,
  "van": 1237,
  "want": 1238,
  "wife": 1239,
  "third": 1240,
  "enn": 1241,
  "total": 1242,
  "rist": 1243,
  "days": 1244,
  "key": 1245,
  "press": 1246,
  "indust": 1247,
  "ization": 1248,
  "does": 1249,
  "istrict": 1250,
  "contin": 1251,
  "Committee": 1252,
  "ittle": 1253,
  "Laos": 1254,
  "ject": 1255,
  "receiv": 1256,
  "Ad": 1257,
  "East": 1258,
  "James": 1259,
  "cot": 1260,
  "federal": 1261,
  "gin": 1262,
  "ix": 1263,
  "ience": 1264,
  "ler": 1265,
  "ning": 1266,
  "num": 1267,
  "oot": 1268,
  "session": 1269,
  "vict": 1270,
  "won": 1271,
  "war": 1272,
  "inc": 1273,
  "real": 1274,
  "ston": 1275,
  "still": 1276,
  "alth": 1277,
  "too": 1278,
  "ision": 1279,
  "asked": 1280,
  "seem": 1281,
  "former": 1282,
  "ages": 1283,
  "result": 1284,
  "conom": 1285,
  "place": 1286,
  "polic": 1287,
  "schools": 1288,
  "service": 1289,
  "however": 1290,
  "court": 1291,
  "announced": 1292,
  "chairman": 1293,
  "cretary": 1294,
  "given": 1295,
  "17": 1296,
  "Bel": 1297,
  "Brit": 1298,
  "Ed": 1299,
  "care": 1300,
  "case": 1301,
  "hom": 1302,
  "iate": 1303,
  "nor": 1304,
  "pat": 1305,
  "sk": 1306,
  "sur": 1307,
  "same": 1308,
  "val": 1309,
  "invest": 1310,
  "ones": 1311,
  "requ": 1312,
  "along": 1313,
  "beli": 1314,
  "ills": 1315,
  "ably": 1316,
  "teach": 1317,
  "fron": 1318,
  "anti": 1319,
  "feel": 1320,
  "spir": 1321,
  "every": 1322,
  "March": 1323,
  "inning": 1324,
  "six": 1325,
  "County": 1326,
  "major": 1327,
  "Ber": 1328,
  "How": 1329,
  "Satur": 1330,
  "Yan": 1331,
  "bre": 1332,
  "found": 1333,
  "line": 1334,
  "little": 1335,
  "mod": 1336,
  "mach": 1337,
  "nam": 1338,
  "ris": 1339,
  "wal": 1340,
  "ond": 1341,
  "sever": 1342,
  "aining": 1343,
  "artment": 1344,
  "prom": 1345,
  "book": 1346,
  "Christ": 1347,
  "support": 1348,
  "Player": 1349,
  "Saturday": 1350,
  "'ll": 1351,
  "100": 1352,
  "50": 1353,
  "Jan": 1354,
  "Rich": 1355,
  "To": 1356,
  "cap": 1357,
  "dem": 1358,
  "give": 1359,
  "hop": 1360,
  "hard": 1361,
  "hold": 1362,
  "ible": 1363,
  "sign": 1364,
  "wom": 1365,
  "thor": 1366,
  "order": 1367,
  "stock": 1368,
  "staff": 1369,
  "began": 1370,
  "igned": 1371,
  "ored": 1372,
  "oney": 1373,
  "Thom": 1374,
  "stra": 1375,
  "count": 1376,
  "party": 1377,
  "later": 1378,
  "great": 1379,
  "large": 1380,
  "Senate": 1381,
  "market": 1382,
  "town": 1383,
  "number": 1384,
  "several": 1385,
  "Be": 1386,
  "Br": 1387,
  "Car": 1388,
  "Me": 1389,
  "bed": 1390,
  "bar": 1391,
  "econom": 1392,
  "happ": 1393,
  "list": 1394,
  "og": 1395,
  "side": 1396,
  "reat": 1397,
  "itary": 1398,
  "church": 1399,
  "und": 1400,
  "suc": 1401,
  "short": 1402,
  "ends": 1403,
  "ivid": 1404,
  "boy": 1405,
  "few": 1406,
  "comple": 1407,
  "tries": 1408,
  "annual": 1409,
  "added": 1410,
  "Frank": 1411,
  "ordin": 1412,
  "library": 1413,
  "North": 1414,
  "received": 1415,
  "Yanke": 1416,
  "22": 1417,
  "Dav": 1418,
  "Or": 1419,
  "cas": 1420,
  "fire": 1421,
  "fav": 1422,
  "farm": 1423,
  "hist": 1424,
  "mov": 1425,
  "pi": 1426,
  "pan": 1427,
  "rul": 1428,
  "ved": 1429,
  "vent": 1430,
  "reach": 1431,
  "education": 1432,
  "orney": 1433,
  "ese": 1434,
  "ching": 1435,
  "olic": 1436,
  "concer": 1437,
  "taken": 1438,
  "That": 1439,
  "ipment": 1440,
  "inner": 1441,
  "laws": 1442,
  "leaders": 1443,
  "reported": 1444,
  "official": 1445,
  "librar": 1446,
  "aughter": 1447,
  "possible": 1448,
  "ross": 1449,
  "candid": 1450,
  "14": 1451,
  "Her": 1452,
  "Port": 1453,
  "With": 1454,
  "cover": 1455,
  "eight": 1456,
  "fil": 1457,
  "labor": 1458,
  "priv": 1459,
  "vers": 1460,
  "recent": 1461,
  "hear": 1462,
  "best": 1463,
  "resp": 1464,
  "foreign": 1465,
  "police": 1466,
  "full": 1467,
  "iety": 1468,
  "Congo": 1469,
  "director": 1470,
  "question": 1471,
  "Republican": 1472,
  "equipment": 1473,
  "small": 1474,
  "All": 1475,
  "aver": 1476,
  "batt": 1477,
  "money": 1478,
  "ps": 1479,
  "pet": 1480,
  "pop": 1481,
  "thers": 1482,
  "around": 1483,
  "ille": 1484,
  "acy": 1485,
  "urned": 1486,
  "ime": 1487,
  "prob": 1488,
  "decl": 1489,
  "action": 1490,
  "grad": 1491,
  "center": 1492,
  "position": 1493,
  "county": 1494,
  "minut": 1495,
  "runs": 1496,
  "design": 1497,
  "general": 1498,
  "ready": 1499,
  "consid": 1500,
  "bonds": 1501,
  "issue": 1502,
  "military": 1503,
  "industry": 1504,
  "Richard": 1505,
  "16": 1506,
  "Bill": 1507,
  "Cour": 1508,
  "His": 1509,
  "If": 1510,
  "Kh": 1511,
  "One": 1512,
  "bod": 1513,
  "move": 1514,
  "round": 1515,
  "ule": 1516,
  "ually": 1517,
  "toge": 1518,
  "assa": 1519,
  "university": 1520,
  "imin": 1521,
  "ither": 1522,
  "appe": 1523,
  "trust": 1524,
  "away": 1525,
  "attack": 1526,
  "partic": 1527,
  "Congress": 1528,
  "vote": 1529,
  "Robert": 1530,
  "Club": 1531,
  "machin": 1532,
  "Khrush": 1533,
  "together": 1534,
  "Aug": 1535,
  "Bal": 1536,
  "Cal": 1537,
  "Ex": 1538,
  "Jack": 1539,
  "Judge": 1540,
  "Lou": 1541,
  "San": 1542,
  "Sov": 1543,
  "bank": 1544,
  "camp": 1545,
  "dan": 1546,
  "dif": 1547,
  "dict": 1548,
  "job": 1549,
  "pow": 1550,
  "paid": 1551,
  "sw": 1552,
  "wel": 1553,
  "ined": 1554,
  "ency": 1555,
  "aged": 1556,
  "empt": 1557,
  "term": 1558,
  "sure": 1559,
  "ains": 1560,
  "clos": 1561,
  "peri": 1562,
  "Street": 1563,
  "ief": 1564,
  "wood": 1565,
  "indic": 1566,
  "ize": 1567,
  "country": 1568,
  "countries": 1569,
  "chev": 1570,
  "better": 1571,
  "certain": 1572,
  "collection": 1573,
  "funds": 1574,
  "says": 1575,
  "until": 1576,
  "baseball": 1577,
  "Belg": 1578,
  "Khrushchev": 1579,
  "Soviet": 1580,
  "Af": 1581,
  "Gre": 1582,
  "Jun": 1583,
  "Sm": 1584,
  "So": 1585,
  "clear": 1586,
  "fut": 1587,
  "fail": 1588,
  "foot": 1589,
  "gia": 1590,
  "miss": 1591,
  "sched": 1592,
  "think": 1593,
  "invol": 1594,
  "enough": 1595,
  "stri": 1596,
  "step": 1597,
  "sey": 1598,
  "ablish": 1599,
  "teen": 1600,
  "ister": 1601,
  "appro": 1602,
  "lier": 1603,
  "establish": 1604,
  "trans": 1605,
  "Ind": 1606,
  "making": 1607,
  "ished": 1608,
  "League": 1609,
  "Georgia": 1610,
  "Phil": 1611,
  "political": 1612,
  "favor": 1613,
  "Court": 1614,
  "Bob": 1615,
  "Cub": 1616,
  "Ger": 1617,
  "Mart": 1618,
  "duc": 1619,
  "daughter": 1620,
  "fair": 1621,
  "ging": 1622,
  "ker": 1623,
  "lor": 1624,
  "lim": 1625,
  "mb": 1626,
  "nation": 1627,
  "sen": 1628,
  "spr": 1629,
  "vit": 1630,
  "sell": 1631,
  "rop": 1632,
  "olf": 1633,
  "accord": 1634,
  "contract": 1635,
  "allow": 1636,
  "project": 1637,
  "deal": 1638,
  "oss": 1639,
  "live": 1640,
  "quart": 1641,
  "prof": 1642,
  "class": 1643,
  "worth": 1644,
  "author": 1645,
  "Chic": 1646,
  "compet": 1647,
  "going": 1648,
  "Leg": 1649,
  "higher": 1650,
  "leader": 1651,
  "addition": 1652,
  "needed": 1653,
  "demand": 1654,
  "After": 1655,
  "High": 1656,
  "Mor": 1657,
  "Pat": 1658,
  "Ray": 1659,
  "Serv": 1660,
  "band": 1661,
  "cis": 1662,
  "ecut": 1663,
  "fight": 1664,
  "kn": 1665,
  "mus": 1666,
  "mitt": 1667,
  "sent": 1668,
  "vious": 1669,
  "whe": 1670,
  "ators": 1671,
  "represent": 1672,
  "arch": 1673,
  "ale": 1674,
  "ising": 1675,
  "olution": 1676,
  "immed": 1677,
  "conference": 1678,
  "tele": 1679,
  "earlier": 1680,
  "anta": 1681,
  "ives": 1682,
  "pract": 1683,
  "avy": 1684,
  "series": 1685,
  "coach": 1686,
  "weeks": 1687,
  "ways": 1688,
  "gener": 1689,
  "single": 1690,
  "George": 1691,
  "including": 1692,
  "Hugh": 1693,
  "depend": 1694,
  "front": 1695,
  "complete": 1696,
  "Yankees": 1697,
  "Portland": 1698,
  "minutes": 1699,
  "future": 1700,
  "Martin": 1701,
  "Chicago": 1702,
  "Barn": 1703,
  "Cath": 1704,
  "Dep": 1705,
  "En": 1706,
  "Government": 1707,
  "Pl": 1708,
  "Pro": 1709,
  "Sal": 1710,
  "Sam": 1711,
  "War": 1712,
  "aud": 1713,
  "bal": 1714,
  "ca": 1715,
  "dist": 1716,
  "done": 1717,
  "fall": 1718,
  "grow": 1719,
  "hip": 1720,
  "hous": 1721,
  "iol": 1722,
  "jo": 1723,
  "nes": 1724,
  "pur": 1725,
  "sit": 1726,
  "tre": 1727,
  "tour": 1728,
  "water": 1729,
  "ony": 1730,
  "stro": 1731,
  "states": 1732,
  "almost": 1733,
  "toward": 1734,
  "ased": 1735,
  "champ": 1736,
  "seven": 1737,
  "ford": 1738,
  "among": 1739,
  "union": 1740,
  "erson": 1741,
  "ural": 1742,
  "necess": 1743,
  "coming": 1744,
  "text": 1745,
  "upon": 1746,
  "office": 1747,
  "ports": 1748,
  "venue": 1749,
  "assist": 1750,
  "individ": 1751,
  "compan": 1752,
  "tribut": 1753,
  "played": 1754,
  "marri": 1755,
  "overnor": 1756,
  "appoint": 1757,
  "control": 1758,
  "course": 1759,
  "provide": 1760,
  "final": 1761,
  "international": 1762,
  "persons": 1763,
  "return": 1764,
  "Council": 1765,
  "Francis": 1766,
  "fund": 1767,
  "Secretary": 1768,
  "decided": 1769,
  "statement": 1770,
  "stitut": 1771,
  "stitution": 1772,
  "increase": 1773,
  "organization": 1774,
  "British": 1775,
  "Smith": 1776,
  "quarters": 1777,
  "Legislat": 1778,
  "Hughes": 1779,
  "24": 1780,
  "500": 1781,
  "60": 1782,
  "Em": 1783,
  "Fe": 1784,
  "Hol": 1785,
  "Is": 1786,
  "Jones": 1787,
  "Russ": 1788,
  "School": 1789,
  "Wed": 1790,
  "ban": 1791,
  "ded": 1792,
  "div": 1793,
  "dinner": 1794,
  "kind": 1795,
  "por": 1796,
  "pri": 1797,
  "post": 1798,
  "pick": 1799,
  "ric": 1800,
  "uth": 1801,
  "ued": 1802,
  "ufact": 1803,
  "ville": 1804,
  "wide": 1805,
  "err": 1806,
  "stop": 1807,
  "ental": 1808,
  "advis": 1809,
  "become": 1810,
  "amoun": 1811,
  "proper": 1812,
  "ull": 1813,
  "super": 1814,
  "ists": 1815,
  "manufact": 1816,
  "ieve": 1817,
  "assoc": 1818,
  "ured": 1819,
  "strong": 1820,
  "event": 1821,
  "lines": 1822,
  "effort": 1823,
  "victory": 1824,
  "policy": 1825,
  "break": 1826,
  "success": 1827,
  "power": 1828,
  "period": 1829,
  "according": 1830,
  "immediate": 1831,
  "Catholic": 1832,
  "nesday": 1833,
  "Wednesday": 1834,
  "Air": 1835,
  "Bro": 1836,
  "El": 1837,
  "Jim": 1838,
  "No": 1839,
  "Sk": 1840,
  "Wal": 1841,
  "aim": 1842,
  "ares": 1843,
  "cle": 1844,
  "don": 1845,
  "dol": 1846,
  "fur": 1847,
  "find": 1848,
  "games": 1849,
  "gave": 1850,
  "ium": 1851,
  "ki": 1852,
  "race": 1853,
  "sim": 1854,
  "uation": 1855,
  "var": 1856,
  "yards": 1857,
  "income": 1858,
  "tomor": 1859,
  "omin": 1860,
  "chn": 1861,
  "adv": 1862,
  "seek": 1863,
  "conf": 1864,
  "ements": 1865,
  "plac": 1866,
  "plans": 1867,
  "comb": 1868,
  "tra": 1869,
  "whose": 1870,
  "194": 1871,
  "ansas": 1872,
  "Thur": 1873,
  "attorney": 1874,
  "council": 1875,
  "noon": 1876,
  "Ang": 1877,
  "community": 1878,
  "playing": 1879,
  "vision": 1880,
  "1959": 1881,
  "affic": 1882,
  "Atl": 1883,
  "operation": 1884,
  "students": 1885,
  "entertain": 1886,
  "matter": 1887,
  "hours": 1888,
  "efforts": 1889,
  "Charles": 1890,
  "women": 1891,
  "libraries": 1892,
  "private": 1893,
  "body": 1894,
  "Department": 1895,
  "tomorrow": 1896,
  "28": 1897,
  "Apr": 1898,
  "Hospital": 1899,
  "Mary": 1900,
  "Rob": 1901,
  "Some": 1902,
  "ben": 1903,
  "district": 1904,
  "fare": 1905,
  "face": 1906,
  "gress": 1907,
  "golf": 1908,
  "ham": 1909,
  "hospital": 1910,
  "iver": 1911,
  "jun": 1912,
  "mit": 1913,
  "mot": 1914,
  "nine": 1915,
  "ple": 1916,
  "sday": 1917,
  "tou": 1918,
  "ters": 1919,
  "ude": 1920,
  "uary": 1921,
  "viol": 1922,
  "though": 1923,
  "ened": 1924,
  "recomm": 1925,
  "reason": 1926,
  "ised": 1927,
  "itz": 1928,
  "accept": 1929,
  "irds": 1930,
  "els": 1931,
  "ets": 1932,
  "resolution": 1933,
  "constru": 1934,
  "prove": 1935,
  "life": 1936,
  "keep": 1937,
  "shop": 1938,
  "prim": 1939,
  "brought": 1940,
  "coal": 1941,
  "commission": 1942,
  "prec": 1943,
  "trial": 1944,
  "himself": 1945,
  "Assoc": 1946,
  "billion": 1947,
  "selves": 1948,
  "legislat": 1949,
  "Mayor": 1950,
  "consult": 1951,
  "South": 1952,
  "Thomas": 1953,
  "gradu": 1954,
  "Louis": 1955,
  "dollar": 1956,
  "Thursday": 1957,
  "April": 1958,
  "'re": 1959,
  "23": 1960,
  "70": 1961,
  "Don": 1962,
  "Ele": 1963,
  "Sch": 1964,
  "Soc": 1965,
  "hole": 1966,
  "light": 1967,
  "ny": 1968,
  "po": 1969,
  "ply": 1970,
  "rad": 1971,
  "ys": 1972,
  "threat": 1973,
  "inson": 1974,
  "enry": 1975,
  "ats": 1976,
  "stant": 1977,
  "arrest": 1978,
  "itions": 1979,
  "ional": 1980,
  "lege": 1981,
  "level": 1982,
  "ides": 1983,
  "bel": 1984,
  "acc": 1985,
  "ett": 1986,
  "ceed": 1987,
  "condu": 1988,
  "ately": 1989,
  "exc": 1990,
  "estim": 1991,
  "shot": 1992,
  "grand": 1993,
  "ground": 1994,
  "close": 1995,
  "bring": 1996,
  "posed": 1997,
  "Ann": 1998,
  "What": 1999,
  "ailroad": 2000,
  "1958": 2001,
  "plane": 2002,
  "became": 2003,
  "started": 2004,
  "College": 2005,
  "curr": 2006,
  "Park": 2007,
  "drive": 2008,
  "wanted": 2009,
  "cases": 2010,
  "history": 2011,
  "machinery": 2012,
  "August": 2013,
  "Belgians": 2014,
  "involved": 2015,
  "Service": 2016,
  "mitted": 2017,
  "necessary": 2018,
  "'ve": 2019,
  "21": 2020,
  "40": 2021,
  "Bar": 2022,
  "Bear": 2023,
  "Cent": 2024,
  "Cap": 2025,
  "Hart": 2026,
  "Hotel": 2027,
  "Hills": 2028,
  "Kow": 2029,
  "Mos": 2030,
  "Pet": 2031,
  "Prem": 2032,
  "You": 2033,
  "aign": 2034,
  "ba": 2035,
  "bom": 2036,
  "cul": 2037,
  "ding": 2038,
  "fle": 2039,
  "flo": 2040,
  "hol": 2041,
  "kick": 2042,
  "mo": 2043,
  "mother": 2044,
  "nold": 2045,
  "sat": 2046,
  "tell": 2047,
  "win": 2048,
  "wat": 2049,
  "writ": 2050,
  "once": 2051,
  "rew": 2052,
  "search": 2053,
  "white": 2054,
  "import": 2055,
  "sug": 2056,
  "saw": 2057,
  "ext": 2058,
  "exper": 2059,
  "ests": 2060,
  "share": 2061,
  "shares": 2062,
  "quar": 2063,
  "ivil": 2064,
  "prices": 2065,
  "Inter": 2066,
  "ellow": 2067,
  "news": 2068,
  "central": 2069,
  "ept": 2070,
  "afternoon": 2071,
  "spect": 2072,
  "themselves": 2073,
  "cars": 2074,
  "appar": 2075,
  "alski": 2076,
  "rather": 2077,
  "student": 2078,
  "passed": 2079,
  "opening": 2080,
  "problems": 2081,
  "developed": 2082,
  "Christian": 2083,
  "straight": 2084,
  "David": 2085,
  "probably": 2086,
  "particular": 2087,
  "closed": 2088,
  "indicated": 2089,
  "individual": 2090,
  "Legislature": 2091,
  "Island": 2092,
  "amount": 2093,
  "Angel": 2094,
  "Kowalski": 2095,
  "Premier": 2096,
  "'m": 2097,
  "27": 2098,
  "Eu": 2099,
  "Hou": 2100,
  "Henry": 2101,
  "Ju": 2102,
  "Jose": 2103,
  "Law": 2104,
  "Wil": 2105,
  "aut": 2106,
  "cal": 2107,
  "cow": 2108,
  "crow": 2109,
  "crit": 2110,
  "drop": 2111,
  "fic": 2112,
  "fel": 2113,
  "free": 2114,
  "met": 2115,
  "mber": 2116,
  "rule": 2117,
  "wr": 2118,
  "ying": 2119,
  "ering": 2120,
  "ances": 2121,
  "request": 2122,
  "ison": 2123,
  "iting": 2124,
  "ication": 2125,
  "ically": 2126,
  "ilar": 2127,
  "least": 2128,
  "league": 2129,
  "secut": 2130,
  "contribut": 2131,
  "ulty": 2132,
  "dead": 2133,
  "techn": 2134,
  "except": 2135,
  "execut": 2136,
  "approv": 2137,
  "meas": 2138,
  "means": 2139,
  "Church": 2140,
  "attend": 2141,
  "times": 2142,
  "serious": 2143,
  "ption": 2144,
  "getting": 2145,
  "disc": 2146,
  "medical": 2147,
  "services": 2148,
  "elect": 2149,
  "headquarters": 2150,
  "score": 2151,
  "address": 2152,
  "charge": 2153,
  "officers": 2154,
  "college": 2155,
  "relig": 2156,
  "social": 2157,
  "defense": 2158,
  "building": 2159,
  "costs": 2160,
  "proposed": 2161,
  "manager": 2162,
  "honor": 2163,
  "effect": 2164,
  "effective": 2165,
  "modern": 2166,
  "campaign": 2167,
  "Green": 2168,
  "schedul": 2169,
  "spring": 2170,
  "whether": 2171,
  "companies": 2172,
  "Atlanta": 2173,
  "Robinson": 2174,
  "Association": 2175,
  "Joseph": 2176,
  "Avenue": 2177,
  "Cle": 2178,
  "Dan": 2179,
  "Day": 2180,
  "Federal": 2181,
  "Gu": 2182,
  "Jer": 2183,
  "Lum": 2184,
  "Mil": 2185,
  "More": 2186,
  "Not": 2187,
  "Red": 2188,
  "Sept": 2189,
  "Two": 2190,
  "ah": 2191,
  "az": 2192,
  "cing": 2193,
  "civil": 2194,
  "driv": 2195,
  "ee": 2196,
  "ey": 2197,
  "ees": 2198,
  "fill": 2199,
  "fri": 2200,
  "fine": 2201,
  "gl": 2202,
  "gers": 2203,
  "governor": 2204,
  "hotel": 2205,
  "ik": 2206,
  "lun": 2207,
  "mid": 2208,
  "mere": 2209,
  "main": 2210,
  "mission": 2211,
  "ping": 2212,
  "sch": 2213,
  "sol": 2214,
  "turned": 2215,
  "usu": 2216,
  "vin": 2217,
  "thod": 2218,
  "inform": 2219,
  "ang": 2220,
  "ature": 2221,
  "already": 2222,
  "ask": 2223,
  "asons": 2224,
  "itor": 2225,
  "itche": 2226,
  "hest": 2227,
  "formed": 2228,
  "forces": 2229,
  "olog": 2230,
  "conspir": 2231,
  "allery": 2232,
  "ability": 2233,
  "lies": 2234,
  "thern": 2235,
  "trad": 2236,
  "traffic": 2237,
  "princ": 2238,
  "mean": 2239,
  "taking": 2240,
  "soon": 2241,
  "Then": 2242,
  "award": 2243,
  "ipal": 2244,
  "auto": 2245,
  "owners": 2246,
  "complet": 2247,
  "spok": 2248,
  "door": 2249,
  "understand": 2250,
  "tried": 2251,
  "itting": 2252,
  "served": 2253,
  "evidence": 2254,
  "America": 2255,
  "bles": 2256,
  "hower": 2257,
  "ample": 2258,
  "condition": 2259,
  "charter": 2260,
  "curity": 2261,
  "announce": 2262,
  "change": 2263,
  "Both": 2264,
  "Board": 2265,
  "Stein": 2266,
  "General": 2267,
  "development": 2268,
  "personal": 2269,
  "summer": 2270,
  "agreed": 2271,
  "agreement": 2272,
  "investig": 2273,
  "spirit": 2274,
  "candidate": 2275,
  "respons": 2276,
  "popul": 2277,
  "June": 2278,
  "duced": 2279,
  "music": 2280,
  "situation": 2281,
  "association": 2282,
  "similar": 2283,
  "touch": 2284,
  "primary": 2285,
  "Moscow": 2286,
  "suggest": 2287,
  "Am": 2288,
  "Act": 2289,
  "Aust": 2290,
  "Ben": 2291,
  "Del": 2292,
  "District": 2293,
  "Eis": 2294,
  "Fir": 2295,
  "Fore": 2296,
  "Ill": 2297,
  "Last": 2298,
  "Man": 2299,
  "Mort": 2300,
  "Mitche": 2301,
  "Ori": 2302,
  "Pa": 2303,
  "Per": 2304,
  "Pas": 2305,
  "Pit": 2306,
  "Pol": 2307,
  "Sy": 2308,
  "Sim": 2309,
  "Sher": 2310,
  "Wag": 2311,
  "ax": 2312,
  "ake": 2313,
  "bud": 2314,
  "burn": 2315,
  "di": 2316,
  "date": 2317,
  "ech": 2318,
  "father": 2319,
  "gas": 2320,
  "gro": 2321,
  "gir": 2322,
  "jud": 2323,
  "lock": 2324,
  "name": 2325,
  "pen": 2326,
  "pose": 2327,
  "pite": 2328,
  "sold": 2329,
  "wed": 2330,
  "independ": 2331,
  "encour": 2332,
  "enhower": 2333,
  "research": 2334,
  "stay": 2335,
  "stage": 2336,
  "arson": 2337,
  "often": 2338,
  "toll": 2339,
  "heard": 2340,
  "cher": 2341,
  "chief": 2342,
  "ady": 2343,
  "adem": 2344,
  "beg": 2345,
  "beat": 2346,
  "across": 2347,
  "negot": 2348,
  "within": 2349,
  "compl": 2350,
  "depart": 2351,
  "ape": 2352,
  "aps": 2353,
  "appl": 2354,
  "aster": 2355,
  "kept": 2356,
  "trou": 2357,
  "price": 2358,
  "grant": 2359,
  "claim": 2360,
  "tail": 2361,
  "feet": 2362,
  "bride": 2363,
  "cred": 2364,
  "obtain": 2365,
  "working": 2366,
  "workers": 2367,
  "aker": 2368,
  "designed": 2369,
  "bills": 2370,
  "Cont": 2371,
  "relations": 2372,
  "Republicans": 2373,
  "products": 2374,
  "double": 2375,
  "average": 2376,
  "battle": 2377,
  "consider": 2378,
  "failed": 2379,
  "tournam": 2380,
  "champion": 2381,
  "Francisco": 2382,
  "property": 2383,
  "manufactur": 2384,
  "further": 2385,
  "construction": 2386,
  "discuss": 2387,
  "religious": 2388,
  "schol": 2389,
  "Eisenhower": 2390,
  "Mitchell": 2391,
  "girl": 2392,
  "37": 2393,
  "65": 2394,
  "Ab": 2395,
  "By": 2396,
  "Cr": 2397,
  "Den": 2398,
  "Ful": 2399,
  "Kansas": 2400,
  "Li": 2401,
  "Oh": 2402,
  "Oct": 2403,
  "Other": 2404,
  "Pe": 2405,
  "bit": 2406,
  "bid": 2407,
  "fif": 2408,
  "food": 2409,
  "hus": 2410,
  "iations": 2411,
  "jur": 2412,
  "kins": 2413,
  "lation": 2414,
  "loss": 2415,
  "mes": 2416,
  "nuc": 2417,
  "others": 2418,
  "pot": 2419,
  "pie": 2420,
  "sou": 2421,
  "squ": 2422,
  "uel": 2423,
  "vice": 2424,
  "vidence": 2425,
  "xim": 2426,
  "thought": 2427,
  "ines": 2428,
  "theast": 2429,
  "ana": 2430,
  "ening": 2431,
  "atic": 2432,
  "reven": 2433,
  "stre": 2434,
  "argu": 2435,
  "islation": 2436,
  "itiz": 2437,
  "ilities": 2438,
  "ention": 2439,
  "adel": 2440,
  "adop": 2441,
  "semb": 2442,
  "roop": 2443,
  "vey": 2444,
  "improve": 2445,
  "opin": 2446,
  "above": 2447,
  "deb": 2448,
  "example": 2449,
  "qual": 2450,
  "prise": 2451,
  "achieve": 2452,
  "attempt": 2453,
  "spons": 2454,
  "streng": 2455,
  "airs": 2456,
  "previous": 2457,
  "phia": 2458,
  "cannot": 2459,
  "chestra": 2460,
  "carri": 2461,
  "carry": 2462,
  "enses": 2463,
  "ension": 2464,
  "green": 2465,
  "legislation": 2466,
  "presented": 2467,
  "talk": 2468,
  "Arnold": 2469,
  "Att": 2470,
  "didn": 2471,
  "receive": 2472,
  "direct": 2473,
  "firms": 2474,
  "draw": 2475,
  "basis": 2476,
  "defend": 2477,
  "born": 2478,
  "possib": 2479,
  "faculty": 2480,
  "turnpi": 2481,
  "continued": 2482,
  "Education": 2483,
  "walk": 2484,
  "economic": 2485,
  "reached": 2486,
  "declared": 2487,
  "football": 2488,
  "approach": 2489,
  "Philadel": 2490,
  "profession": 2491,
  "Eng": 2492,
  "Providence": 2493,
  "housing": 2494,
  "textile": 2495,
  "dollars": 2496,
  "Central": 2497,
  "floor": 2498,
  "quarter": 2499,
  "Houston": 2500,
  "July": 2501,
  "felt": 2502,
  "lunche": 2503,
  "merely": 2504,
  "Among": 2505,
  "Austin": 2506,
  "First": 2507,
  "Wagner": 2508,
  "Philadelphia": 2509,
  "45": 2510,
  "AP": 2511,
  "Aj": 2512,
  "Bost": 2513,
  "Cot": 2514,
  "Each": 2515,
  "Gl": 2516,
  "Hill": 2517,
  "Los": 2518,
  "Mo": 2519,
  "Min": 2520,
  "Rev": 2521,
  "Scot": 2522,
  "Wor": 2523,
  "bach": 2524,
  "cri": 2525,
  "cies": 2526,
  "coup": 2527,
  "dy": 2528,
  "dle": 2529,
  "eve": 2530,
  "furn": 2531,
  "gaining": 2532,
  "hits": 2533,
  "hib": 2534,
  "haps": 2535,
  "iants": 2536,
  "kid": 2537,
  "mis": 2538,
  "nar": 2539,
  "oh": 2540,
  "pson": 2541,
  "purch": 2542,
  "ron": 2543,
  "rence": 2544,
  "sense": 2545,
  "wer": 2546,
  "wit": 2547,
  "yer": 2548,
  "your": 2549,
  "ze": 2550,
  "ene": 2551,
  "ories": 2552,
  "street": 2553,
  "ickey": 2554,
  "health": 2555,
  "ilt": 2556,
  "entire": 2557,
  "forman": 2558,
  "aging": 2559,
  "vert": 2560,
  "eman": 2561,
  "neigh": 2562,
  "process": 2563,
  "ribut": 2564,
  "comes": 2565,
  "decor": 2566,
  "using": 2567,
  "aint": 2568,
  "quick": 2569,
  "having": 2570,
  "performan": 2571,
  "upt": 2572,
  "acked": 2573,
  "word": 2574,
  "ctions": 2575,
  "adequ": 2576,
  "mond": 2577,
  "struck": 2578,
  "parties": 2579,
  "prep": 2580,
  "prevent": 2581,
  "Union": 2582,
  "speed": 2583,
  "something": 2584,
  "aily": 2585,
  "appear": 2586,
  "Commission": 2587,
  "bled": 2588,
  "fourth": 2589,
  "finan": 2590,
  "headed": 2591,
  "fully": 2592,
  "youth": 2593,
  "Army": 2594,
  "guests": 2595,
  "needs": 2596,
  "submar": 2597,
  "calls": 2598,
  "ffic": 2599,
  "decision": 2600,
  "interested": 2601,
  "Williams": 2602,
  "proposal": 2603,
  "following": 2604,
  "nearly": 2605,
  "value": 2606,
  "believ": 2607,
  "concert": 2608,
  "hearing": 2609,
  "diffic": 2610,
  "Cuba": 2611,
  "limited": 2612,
  "additional": 2613,
  "known": 2614,
  "generally": 2615,
  "Warren": 2616,
  "Emory": 2617,
  "junior": 2618,
  "graduate": 2619,
  "estimated": 2620,
  "bomb": 2621,
  "important": 2622,
  "International": 2623,
  "particularly": 2624,
  "Angeles": 2625,
  "Lawrence": 2626,
  "scheduled": 2627,
  "conspiracy": 2628,
  "Morton": 2629,
  "Pitts": 2630,
  "Denver": 2631,
  "Fulton": 2632,
  "Ohio": 2633,
  "husband": 2634,
  "nuclear": 2635,
  "luncheon": 2636,
  "Boston": 2637,
  "witness": 2638,
  "34": 2639,
  "35": 2640,
  "Bre": 2641,
  "Bur": 2642,
  "Hem": 2643,
  "Hav": 2644,
  "Lo": 2645,
  "Mickey": 2646,
  "Nations": 2647,
  "Rh": 2648,
  "Res": 2649,
  "Ruth": 2650,
  "Str": 2651,
  "aur": 2652,
  "bound": 2653,
  "bird": 2654,
  "cere": 2655,
  "dale": 2656,
  "daily": 2657,
  "fig": 2658,
  "fet": 2659,
  "fast": 2660,
  "flow": 2661,
  "kne": 2662,
  "lost": 2663,
  "mag": 2664,
  "nin": 2665,
  "nel": 2666,
  "net": 2667,
  "pa": 2668,
  "rate": 2669,
  "railroad": 2670,
  "simp": 2671,
  "table": 2672,
  "west": 2673,
  "winning": 2674,
  "yard": 2675,
  "thus": 2676,
  "ino": 2677,
  "institut": 2678,
  "theater": 2679,
  "ane": 2680,
  "restr": 2681,
  "really": 2682,
  "orig": 2683,
  "ises": 2684,
  "asing": 2685,
  "ica": 2686,
  "ches": 2687,
  "adium": 2688,
  "admitted": 2689,
  "sele": 2690,
  "secre": 2691,
  "secretary": 2692,
  "security": 2693,
  "force": 2694,
  "acqu": 2695,
  "unions": 2696,
  "impress": 2697,
  "respe": 2698,
  "verdict": 2699,
  "tern": 2700,
  "plus": 2701,
  "earn": 2702,
  "mention": 2703,
  "exist": 2704,
  "extra": 2705,
  "exhib": 2706,
  "apol": 2707,
  "ivities": 2708,
  "grants": 2709,
  "ansion": 2710,
  "method": 2711,
  "berg": 2712,
  "fees": 2713,
  "intend": 2714,
  "makes": 2715,
  "corpor": 2716,
  "preced": 2717,
  "phone": 2718,
  "spec": 2719,
  "range": 2720,
  "players": 2721,
  "aking": 2722,
  "running": 2723,
  "elected": 2724,
  "payroll": 2725,
  "returned": 2726,
  "voted": 2727,
  "study": 2728,
  "charged": 2729,
  "passing": 2730,
  "groups": 2731,
  "Western": 2732,
  "driven": 2733,
  "Force": 2734,
  "ification": 2735,
  "followed": 2736,
  "deter": 2737,
  "doub": 2738,
  "burgh": 2739,
  "explained": 2740,
  "emphas": 2741,
  "Administration": 2742,
  "require": 2743,
  "Howard": 2744,
  "Thompson": 2745,
  "counties": 2746,
  "happy": 2747,
  "churches": 2748,
  "Davis": 2749,
  "panel": 2750,
  "film": 2751,
  "welfare": 2752,
  "television": 2753,
  "Russia": 2754,
  "Brook": 2755,
  "benef": 2756,
  "current": 2757,
  "satis": 2758,
  "measure": 2759,
  "driving": 2760,
  "population": 2761,
  "budget": 2762,
  "tournament": 2763,
  "revenues": 2764,
  "couple": 2765,
  "Pittsburgh": 2766,
  "origin": 2767,
  "secrets": 2768,
  "29": 2769,
  "200": 2770,
  "75": 2771,
  "80": 2772,
  "Ap": 2773,
  "Afr": 2774,
  "Center": 2775,
  "Fam": 2776,
  "Gard": 2777,
  "My": 2778,
  "Mur": 2779,
  "Mem": 2780,
  "Mus": 2781,
  "Many": 2782,
  "Of": 2783,
  "Ok": 2784,
  "Old": 2785,
  "Pir": 2786,
  "Part": 2787,
  "Vir": 2788,
  "Way": 2789,
  "cli": 2790,
  "dom": 2791,
  "gree": 2792,
  "hu": 2793,
  "hy": 2794,
  "hot": 2795,
  "joy": 2796,
  "knew": 2797,
  "lvan": 2798,
  "mates": 2799,
  "master": 2800,
  "nations": 2801,
  "pict": 2802,
  "pair": 2803,
  "rap": 2804,
  "rupt": 2805,
  "slow": 2806,
  "ti": 2807,
  "tit": 2808,
  "wa": 2809,
  "wall": 2810,
  "wind": 2811,
  "throw": 2812,
  "inv": 2813,
  "inste": 2814,
  "enjoy": 2815,
  "redu": 2816,
  "review": 2817,
  "recover": 2818,
  "reasons": 2819,
  "sters": 2820,
  "arily": 2821,
  "espe": 2822,
  "itch": 2823,
  "itive": 2824,
  "iled": 2825,
  "chall": 2826,
  "iding": 2827,
  "rope": 2828,
  "rock": 2829,
  "academ": 2830,
  "ama": 2831,
  "Their": 2832,
  "imes": 2833,
  "ots": 2834,
  "conne": 2835,
  "neither": 2836,
  "areas": 2837,
  "rif": 2838,
  "comment": 2839,
  "opol": 2840,
  "opport": 2841,
  "defin": 2842,
  "deleg": 2843,
  "degree": 2844,
  "suit": 2845,
  "istic": 2846,
  "antic": 2847,
  "antage": 2848,
  "lie": 2849,
  "liber": 2850,
  "lives": 2851,
  "shown": 2852,
  "que": 2853,
  "trade": 2854,
  "ift": 2855,
  "clim": 2856,
  "mechan": 2857,
  "Inc": 2858,
  "pressure": 2859,
  "Chap": 2860,
  "spent": 2861,
  "type": 2862,
  "monopol": 2863,
  "dog": 2864,
  "Negro": 2865,
  "predict": 2866,
  "Under": 2867,
  "worked": 2868,
  "Comp": 2869,
  "anning": 2870,
  "weekend": 2871,
  "player": 2872,
  "While": 2873,
  "color": 2874,
  "Lee": 2875,
  "eva": 2876,
  "Americans": 2877,
  "blue": 2878,
  "greg": 2879,
  "letter": 2880,
  "letters": 2881,
  "finished": 2882,
  "buy": 2883,
  "programs": 2884,
  "reports": 2885,
  "evening": 2886,
  "roads": 2887,
  "jected": 2888,
  "voters": 2889,
  "Mays": 2890,
  "Willie": 2891,
  "hands": 2892,
  "include": 2893,
  "aught": 2894,
  "changes": 2895,
  "Southern": 2896,
  "society": 2897,
  "rooms": 2898,
  "boro": 2899,
  "Huff": 2900,
  "deliver": 2901,
  "empor": 2902,
  "Blue": 2903,
  "doesn": 2904,
  "although": 2905,
  "seemed": 2906,
  "Britain": 2907,
  "believe": 2908,
  "teaching": 2909,
  "However": 2910,
  "books": 2911,
  "hardly": 2912,
  "woman": 2913,
  "bargaining": 2914,
  "listed": 2915,
  "ordinary": 2916,
  "ruled": 2917,
  "concerned": 2918,
  "officials": 2919,
  "considered": 2920,
  "movement": 2921,
  "appeared": 2922,
  "strike": 2923,
  "vital": 2924,
  "audience": 2925,
  "caused": 2926,
  "growth": 2927,
  "join": 2928,
  "division": 2929,
  "placed": 2930,
  "arrested": 2931,
  "apparently": 2932,
  "Europe": 2933,
  "executive": 2934,
  "ology": 2935,
  "independence": 2936,
  "department": 2937,
  "scholar": 2938,
  "opinion": 2939,
  "prepared": 2940,
  "ceremon": 2941,
  "knee": 2942,
  "apolis": 2943,
  "lvania": 2944,
  "26": 2945,
  "300": 2946,
  "41": 2947,
  "69": 2948,
  "Bu": 2949,
  "Can": 2950,
  "Four": 2951,
  "Fren": 2952,
  "Gro": 2953,
  "God": 2954,
  "Giants": 2955,
  "Ham": 2956,
  "Hel": 2957,
  "Haw": 2958,
  "Mac": 2959,
  "Miam": 2960,
  "Now": 2961,
  "Nix": 2962,
  "Simp": 2963,
  "bat": 2964,
  "cop": 2965,
  "cus": 2966,
  "cup": 2967,
  "cock": 2968,
  "due": 2969,
  "either": 2970,
  "fre": 2971,
  "glo": 2972,
  "ito": 2973,
  "ike": 2974,
  "judge": 2975,
  "motel": 2976,
  "nomin": 2977,
  "ode": 2978,
  "pup": 2979,
  "sn": 2980,
  "sil": 2981,
  "tle": 2982,
  "tick": 2983,
  "troop": 2984,
  "uit": 2985,
  "wages": 2986,
  "zz": 2987,
  "erve": 2988,
  "anim": 2989,
  "relat": 2990,
  "aring": 2991,
  "ald": 2992,
  "oud": 2993,
  "ita": 2994,
  "iture": 2995,
  "itors": 2996,
  "heavy": 2997,
  "iles": 2998,
  "leans": 2999,
  "separ": 3000,
  "aylor": 3001,
  "forced": 3002,
  "olese": 3003,
  "veter": 3004,
  "unit": 3005,
  "urged": 3006,
  "imm": 3007,
  "agency": 3008,
  "reserv": 3009,
  "contest": 3010,
  "ember": 3011,
  "suf": 3012,
  "apartment": 3013,
  "ender": 3014,
  "quiet": 3015,
  "track": 3016,
  "whole": 3017,
  "clo": 3018,
  "perhaps": 3019,
  "ustr": 3020,
  "ustom": 3021,
  "offered": 3022,
  "umba": 3023,
  "These": 3024,
  "feat": 3025,
  "intro": 3026,
  "bruary": 3027,
  "timore": 3028,
  "avail": 3029,
  "spend": 3030,
  "izing": 3031,
  "pret": 3032,
  "trip": 3033,
  "iana": 3034,
  "ensive": 3035,
  "block": 3036,
  "taxpay": 3037,
  "ashion": 3038,
  "leading": 3039,
  "despite": 3040,
  "army": 3041,
  "salary": 3042,
  "interview": 3043,
  "cially": 3044,
  "pitching": 3045,
  "Congolese": 3046,
  "ledge": 3047,
  "Senator": 3048,
  "throughout": 3049,
  "handed": 3050,
  "famil": 3051,
  "Anderson": 3052,
  "Democrats": 3053,
  "bond": 3054,
  "Southeast": 3055,
  "basic": 3056,
  "crimin": 3057,
  "employees": 3058,
  "ships": 3059,
  "Geneva": 3060,
  "product": 3061,
  "detail": 3062,
  "expansion": 3063,
  "personnel": 3064,
  "included": 3065,
  "Corps": 3066,
  "continue": 3067,
  "cotton": 3068,
  "seems": 3069,
  "homer": 3070,
  "required": 3071,
  "teacher": 3072,
  "sixth": 3073,
  "hope": 3074,
  "Orleans": 3075,
  "moved": 3076,
  "rules": 3077,
  "recently": 3078,
  "Baltimore": 3079,
  "clearly": 3080,
  "senior": 3081,
  "Moritz": 3082,
  "Barnett": 3083,
  "distribut": 3084,
  "joined": 3085,
  "marriage": 3086,
  "Feb": 3087,
  "February": 3088,
  "immediately": 3089,
  "recommend": 3090,
  "Social": 3091,
  "excell": 3092,
  "Hillsboro": 3093,
  "dropped": 3094,
  "Lumumba": 3095,
  "September": 3096,
  "friends": 3097,
  "information": 3098,
  "tradition": 3099,
  "spokes": 3100,
  "negotiations": 3101,
  "manufacturers": 3102,
  "About": 3103,
  "south": 3104,
  "itizens": 3105,
  "possibility": 3106,
  "ohl": 3107,
  "performance": 3108,
  "financial": 3109,
  "difficult": 3110,
  "Havana": 3111,
  "Family": 3112,
  "Okla": 3113,
  "especially": 3114,
  "academic": 3115,
  "opportunity": 3116,
  "French": 3117,
  "Miami": 3118,
  "Nixon": 3119,
  "veteran": 3120,
  "58": 3121,
  "700": 3122,
  "AT": 3123,
  "Ave": 3124,
  "Bern": 3125,
  "Beach": 3126,
  "Cha": 3127,
  "Case": 3128,
  "Clar": 3129,
  "Dun": 3130,
  "Det": 3131,
  "Dod": 3132,
  "Fre": 3133,
  "Fort": 3134,
  "Fied": 3135,
  "Field": 3136,
  "Gov": 3137,
  "Labor": 3138,
  "Mast": 3139,
  "Mills": 3140,
  "Massa": 3141,
  "Nove": 3142,
  "Oc": 3143,
  "Ral": 3144,
  "Rul": 3145,
  "Rus": 3146,
  "Roy": 3147,
  "Su": 3148,
  "ahead": 3149,
  "bul": 3150,
  "cab": 3151,
  "died": 3152,
  "dress": 3153,
  "dden": 3154,
  "gn": 3155,
  "gain": 3156,
  "gold": 3157,
  "hind": 3158,
  "hund": 3159,
  "ifor": 3160,
  "ienn": 3161,
  "joint": 3162,
  "mal": 3163,
  "non": 3164,
  "nia": 3165,
  "sid": 3166,
  "tw": 3167,
  "uset": 3168,
  "vic": 3169,
  "vere": 3170,
  "viv": 3171,
  "wick": 3172,
  "yet": 3173,
  "yond": 3174,
  "thin": 3175,
  "things": 3176,
  "inst": 3177,
  "informed": 3178,
  "ert": 3179,
  "ences": 3180,
  "encies": 3181,
  "atives": 3182,
  "react": 3183,
  "orich": 3184,
  "stor": 3185,
  "station": 3186,
  "armed": 3187,
  "aled": 3188,
  "ands": 3189,
  "iter": 3190,
  "ital": 3191,
  "itself": 3192,
  "ico": 3193,
  "iced": 3194,
  "heart": 3195,
  "omet": 3196,
  "ential": 3197,
  "chuset": 3198,
  "idge": 3199,
  "ado": 3200,
  "section": 3201,
  "severe": 3202,
  "begin": 3203,
  "beaut": 3204,
  "rob": 3205,
  "fort": 3206,
  "ola": 3207,
  "oles": 3208,
  "account": 3209,
  "lyn": 3210,
  "lying": 3211,
  "ament": 3212,
  "why": 3213,
  "else": 3214,
  "elimin": 3215,
  "utral": 3216,
  "conserv": 3217,
  "convict": 3218,
  "constitution": 3219,
  "neutral": 3220,
  "pled": 3221,
  "plom": 3222,
  "plant": 3223,
  "rib": 3224,
  "rial": 3225,
  "common": 3226,
  "ults": 3227,
  "deep": 3228,
  "death": 3229,
  "exempt": 3230,
  "outside": 3231,
  "uses": 3232,
  "usion": 3233,
  "astic": 3234,
  "occup": 3235,
  "quot": 3236,
  "training": 3237,
  "actually": 3238,
  "percent": 3239,
  "merce": 3240,
  "Stadium": 3241,
  "ansen": 3242,
  "offer": 3243,
  "ously": 3244,
  "anything": 3245,
  "attended": 3246,
  "issip": 3247,
  "minor": 3248,
  "loy": 3249,
  "load": 3250,
  "goal": 3251,
  "obvious": 3252,
  "commit": 3253,
  "commun": 3254,
  "hero": 3255,
  "colleg": 3256,
  "poll": 3257,
  "lower": 3258,
  "Joe": 3259,
  "taxes": 3260,
  "greater": 3261,
  "Although": 3262,
  "proved": 3263,
  "payments": 3264,
  "Johnny": 3265,
  "largest": 3266,
  "planned": 3267,
  "ksley": 3268,
  "insist": 3269,
  "Coast": 3270,
  "reading": 3271,
  "operations": 3272,
  "retired": 3273,
  "enges": 3274,
  "engine": 3275,
  "charges": 3276,
  "Mississip": 3277,
  "standing": 3278,
  "collective": 3279,
  "suppl": 3280,
  "Shea": 3281,
  "slug": 3282,
  "Paris": 3283,
  "flight": 3284,
  "Steven": 3285,
  "Steph": 3286,
  "status": 3287,
  "regard": 3288,
  "points": 3289,
  "knowledge": 3290,
  "increased": 3291,
  "miles": 3292,
  "Harry": 3293,
  "facilities": 3294,
  "expand": 3295,
  "morning": 3296,
  "halfback": 3297,
  "brother": 3298,
  "broke": 3299,
  "burg": 3300,
  "ibility": 3301,
  "Corp": 3302,
  "honored": 3303,
  "formerly": 3304,
  "career": 3305,
  "belief": 3306,
  "feeling": 3307,
  "Berlin": 3308,
  "hopes": 3309,
  "stocks": 3310,
  "succeed": 3311,
  "boys": 3312,
  "leadership": 3313,
  "candidates": 3314,
  "particip": 3315,
  "Califor": 3316,
  "danger": 3317,
  "differ": 3318,
  "jobs": 3319,
  "Junior": 3320,
  "Sox": 3321,
  "dealers": 3322,
  "purpose": 3323,
  "treated": 3324,
  "assistant": 3325,
  "appointment": 3326,
  "superintend": 3327,
  "successful": 3328,
  "Skorich": 3329,
  "advantage": 3330,
  "motor": 3331,
  "approval": 3332,
  "diplom": 3333,
  "fifth": 3334,
  "adopted": 3335,
  "Attorney": 3336,
  "turnpikes": 3337,
  "professional": 3338,
  "furniture": 3339,
  "adequate": 3340,
  "institutions": 3341,
  "methods": 3342,
  "Party": 3343,
  "Virgin": 3344,
  "Company": 3345,
  "emporary": 3346,
  "Hawksley": 3347,
  "itol": 3348,
  "puppet": 3349,
  "troops": 3350,
  "introduced": 3351,
  "available": 3352,
  "ATO": 3353,
  "Fiedler": 3354,
  "Masters": 3355,
  "Massachuset": 3356,
  "November": 3357,
  "Ralph": 3358,
  "California": 3359,
  "superintendent": 3360,
  "Massachusetts": 3361,
  "31": 3362,
  "47": 3363,
  "400": 3364,
  "55": 3365,
  "86": 3366,
  "87": 3367,
  "Ac": 3368,
  "Av": 3369,
  "Ach": 3370,
  "Buck": 3371,
  "Dre": 3372,
  "Des": 3373,
  "Dick": 3374,
  "Every": 3375,
  "Food": 3376,
  "Gold": 3377,
  "Gallery": 3378,
  "Garson": 3379,
  "Hy": 3380,
  "Hall": 3381,
  "Hansen": 3382,
  "Henges": 3383,
  "Lat": 3384,
  "Long": 3385,
  "Mol": 3386,
  "Mich": 3387,
  "Pf": 3388,
  "Penn": 3389,
  "Qu": 3390,
  "Ram": 3391,
  "Spr": 3392,
  "Tom": 3393,
  "Turn": 3394,
  "Vern": 3395,
  "Viet": 3396,
  "Vienn": 3397,
  "Wom": 3398,
  "Wel": 3399,
  "bing": 3400,
  "cir": 3401,
  "cash": 3402,
  "cern": 3403,
  "caught": 3404,
  "custom": 3405,
  "din": 3406,
  "fest": 3407,
  "frequ": 3408,
  "fellow": 3409,
  "fashion": 3410,
  "gar": 3411,
  "gone": 3412,
  "hig": 3413,
  "iber": 3414,
  "iated": 3415,
  "jack": 3416,
  "kers": 3417,
  "kill": 3418,
  "lack": 3419,
  "mist": 3420,
  "mass": 3421,
  "mind": 3422,
  "nom": 3423,
  "nie": 3424,
  "pil": 3425,
  "pound": 3426,
  "rich": 3427,
  "rates": 3428,
  "rise": 3429,
  "rural": 3430,
  "spl": 3431,
  "sess": 3432,
  "snow": 3433,
  "signed": 3434,
  "size": 3435,
  "tough": 3436,
  "ume": 3437,
  "wid": 3438,
  "wage": 3439,
  "wish": 3440,
  "wild": 3441,
  "winter": 3442,
  "xel": 3443,
  "thous": 3444,
  "inch": 3445,
  "ination": 3446,
  "inte": 3447,
  "injury": 3448,
  "infl": 3449,
  "enced": 3450,
  "aters": 3451,
  "atory": 3452,
  "attract": 3453,
  "rec": 3454,
  "reco": 3455,
  "reference": 3456,
  "educ": 3457,
  "orn": 3458,
  "orchestra": 3459,
  "aren": 3460,
  "alone": 3461,
  "tober": 3462,
  "aspe": 3463,
  "ander": 3464,
  "icians": 3465,
  "administr": 3466,
  "sem": 3467,
  "behind": 3468,
  "beyond": 3469,
  "amer": 3470,
  "uni": 3471,
  "irt": 3472,
  "iring": 3473,
  "agg": 3474,
  "ager": 3475,
  "agement": 3476,
  "conven": 3477,
  "convers": 3478,
  "congress": 3479,
  "emer": 3480,
  "prospe": 3481,
  "prosecut": 3482,
  "atest": 3483,
  "planning": 3484,
  "ounced": 3485,
  "ulli": 3486,
  "opposed": 3487,
  "dest": 3488,
  "debut": 3489,
  "destro": 3490,
  "earned": 3491,
  "exact": 3492,
  "aper": 3493,
  "ourn": 3494,
  "ource": 3495,
  "living": 3496,
  "willing": 3497,
  "estate": 3498,
  "haw": 3499,
  "iff": 3500,
  "iful": 3501,
  "activities": 3502,
  "gey": 3503,
  "prison": 3504,
  "grap": 3505,
  "cler": 3506,
  "Stud": 3507,
  "words": 3508,
  "answer": 3509,
  "umes": 3510,
  "umph": 3511,
  "identified": 3512,
  "Thr": 3513,
  "portation": 3514,
  "okie": 3515,
  "aug": 3516,
  "anyone": 3517,
  "Chief": 3518,
  "maxim": 3519,
  "spot": 3520,
  "spending": 3521,
  "tonight": 3522,
  "icken": 3523,
  "coordin": 3524,
  "corre": 3525,
  "sons": 3526,
  "speech": 3527,
  "works": 3528,
  "marked": 3529,
  "disclosed": 3530,
  "controll": 3531,
  "Leon": 3532,
  "rown": 3533,
  "black": 3534,
  "greatest": 3535,
  "Also": 3536,
  "Albert": 3537,
  "lawyer": 3538,
  "Assemb": 3539,
  "descri": 3540,
  "arms": 3541,
  "gency": 3542,
  "retire": 3543,
  "raising": 3544,
  "Roger": 3545,
  "starts": 3546,
  "Week": 3547,
  "reception": 3548,
  "entered": 3549,
  "likely": 3550,
  "opened": 3551,
  "Colmer": 3552,
  "millions": 3553,
  "From": 3554,
  "Norman": 3555,
  "biggest": 3556,
  "statements": 3557,
  "regular": 3558,
  "pointed": 3559,
  "issues": 3560,
  "employes": 3561,
  "builders": 3562,
  "proposals": 3563,
  "Harris": 3564,
  "faced": 3565,
  "looks": 3566,
  "Communists": 3567,
  "summit": 3568,
  "explos": 3569,
  "management": 3570,
  "homes": 3571,
  "north": 3572,
  "investment": 3573,
  "named": 3574,
  "promot": 3575,
  "ordered": 3576,
  "Meek": 3577,
  "economy": 3578,
  "histor": 3579,
  "privile": 3580,
  "respond": 3581,
  "questioned": 3582,
  "designs": 3583,
  "missile": 3584,
  "schedule": 3585,
  "German": 3586,
  "allowed": 3587,
  "Patrol": 3588,
  "Rayburn": 3589,
  "knock": 3590,
  "Samuel": 3591,
  "married": 3592,
  "Holmes": 3593,
  "Russian": 3594,
  "clean": 3595,
  "variety": 3596,
  "combined": 3597,
  "recommended": 3598,
  "precin": 3599,
  "consultant": 3600,
  "radio": 3601,
  "Bears": 3602,
  "Capitol": 3603,
  "critic": 3604,
  "Jersey": 3605,
  "usually": 3606,
  "principal": 3607,
  "automat": 3608,
  "announcement": 3609,
  "investigation": 3610,
  "responsibility": 3611,
  "Orioles": 3612,
  "Paso": 3613,
  "Police": 3614,
  "Sherman": 3615,
  "wedding": 3616,
  "defendants": 3617,
  "World": 3618,
  "submarine": 3619,
  "Rhode": 3620,
  "earnings": 3621,
  "doubt": 3622,
  "Wayne": 3623,
  "instead": 3624,
  "recovery": 3625,
  "gregation": 3626,
  "relative": 3627,
  "October": 3628,
  "Rules": 3629,
  "constitutional": 3630,
  "colleges": 3631,
  "Mississippi": 3632,
  "Hengesbach": 3633,
  "Ramsey": 3634,
  "Vienna": 3635,
  "highest": 3636,
  "integr": 3637,
  "recogn": 3638,
  "maximum": 3639,
  ".'": 3640,
  "38": 3641,
  "39": 3642,
  "46": 3643,
  "52": 3644,
  "85": 3645,
  "AD": 3646,
  "Buch": 3647,
  "Bank": 3648,
  "Birds": 3649,
  "Cast": 3650,
  "Camp": 3651,
  "Clay": 3652,
  "Di": 3653,
  "Dave": 3654,
  "Even": 3655,
  "Fla": 3656,
  "Fund": 3657,
  "Flor": 3658,
  "Hod": 3659,
  "Jen": 3660,
  "Just": 3661,
  "Kas": 3662,
  "Kel": 3663,
  "Karn": 3664,
  "Lond": 3665,
  "Most": 3666,
  "Mason": 3667,
  "Nam": 3668,
  "Nov": 3669,
  "NATO": 3670,
  "Pres": 3671,
  "Pohl": 3672,
  "Ron": 3673,
  "Sw": 3674,
  "Sur": 3675,
  "Spe": 3676,
  "Taylor": 3677,
  "bes": 3678,
  "bad": 3679,
  "bun": 3680,
  "bir": 3681,
  "blast": 3682,
  "broad": 3683,
  "birds": 3684,
  "cat": 3685,
  "cast": 3686,
  "cell": 3687,
  "eas": 3688,
  "fell": 3689,
  "fred": 3690,
  "gallery": 3691,
  "hty": 3692,
  "hood": 3693,
  "hitting": 3694,
  "iar": 3695,
  "ires": 3696,
  "lan": 3697,
  "lig": 3698,
  "lot": 3699,
  "mas": 3700,
  "mut": 3701,
  "mess": 3702,
  "mile": 3703,
  "mph": 3704,
  "nur": 3705,
  "natur": 3706,
  "oen": 3707,
  "oil": 3708,
  "pul": 3709,
  "push": 3710,
  "ring": 3711,
  "rig": 3712,
  "sor": 3713,
  "sist": 3714,
  "swe": 3715,
  "slo": 3716,
  "sister": 3717,
  "ties": 3718,
  "vac": 3719,
  "wis": 3720,
  "wro": 3721,
  "wear": 3722,
  "ina": 3723,
  "inj": 3724,
  "init": 3725,
  "invit": 3726,
  "institution": 3727,
  "erry": 3728,
  "anch": 3729,
  "ante": 3730,
  "enab": 3731,
  "ato": 3732,
  "aton": 3733,
  "atom": 3734,
  "rele": 3735,
  "recor": 3736,
  "reform": 3737,
  "remark": 3738,
  "rejected": 3739,
  "ster": 3740,
  "star": 3741,
  "ark": 3742,
  "arriv": 3743,
  "isn": 3744,
  "ican": 3745,
  "icing": 3746,
  "icated": 3747,
  "chers": 3748,
  "ador": 3749,
  "advan": 3750,
  "advert": 3751,
  "sequ": 3752,
  "rovers": 3753,
  "veh": 3754,
  "acres": 3755,
  "amatic": 3756,
  "units": 3757,
  "whom": 3758,
  "irman": 3759,
  "urer": 3760,
  "elli": 3761,
  "owed": 3762,
  "owned": 3763,
  "agon": 3764,
  "agger": 3765,
  "agencies": 3766,
  "aghty": 3767,
  "resc": 3768,
  "cember": 3769,
  "concl": 3770,
  "concern": 3771,
  "allies": 3772,
  "prote": 3773,
  "produc": 3774,
  "ateur": 3775,
  "opposition": 3776,
  "sudden": 3777,
  "iston": 3778,
  "mann": 3779,
  "apart": 3780,
  "apprec": 3781,
  "osen": 3782,
  "occas": 3783,
  "shar": 3784,
  "shall": 3785,
  "quite": 3786,
  "truth": 3787,
  "ival": 3788,
  "ify": 3789,
  "note": 3790,
  "acts": 3791,
  "aft": 3792,
  "takes": 3793,
  "boost": 3794,
  "Invest": 3795,
  "ump": 3796,
  "ums": 3797,
  "Those": 3798,
  "fee": 3799,
  "venile": 3800,
  "newly": 3801,
  "indict": 3802,
  "attending": 3803,
  "crew": 3804,
  "mail": 3805,
  "nothing": 3806,
  "serve": 3807,
  "doing": 3808,
  "cooper": 3809,
  "Anne": 3810,
  "eful": 3811,
  "commod": 3812,
  "phy": 3813,
  "phill": 3814,
  "phere": 3815,
  "rang": 3816,
  "Ital": 3817,
  "license": 3818,
  "plays": 3819,
  "ballot": 3820,
  "gets": 3821,
  "ultural": 3822,
  "Joan": 3823,
  "controvers": 3824,
  "latter": 3825,
  "setting": 3826,
  "Alfred": 3827,
  "province": 3828,
  "provided": 3829,
  "fered": 3830,
  "payment": 3831,
  "scr": 3832,
  "scient": 3833,
  "science": 3834,
  "1950": 3835,
  "1954": 3836,
  "legal": 3837,
  "talks": 3838,
  "sale": 3839,
  "affairs": 3840,
  "sylvania": 3841,
  "Lake": 3842,
  "subject": 3843,
  "substant": 3844,
  "jects": 3845,
  "raise": 3846,
  "raised": 3847,
  "officer": 3848,
  "France": 3849,
  "publicity": 3850,
  "orders": 3851,
  "famous": 3852,
  "enterprise": 3853,
  "directed": 3854,
  "remain": 3855,
  "remained": 3856,
  "saying": 3857,
  "decis": 3858,
  "questions": 3859,
  "250": 3860,
  "reduc": 3861,
  "Colum": 3862,
  "Dec": 3863,
  "December": 3864,
  "volunt": 3865,
  "trying": 3866,
  "systems": 3867,
  "views": 3868,
  "dramatic": 3869,
  "flict": 3870,
  "based": 3871,
  "Communism": 3872,
  "tenance": 3873,
  "Phoen": 3874,
  "issued": 3875,
  "employment": 3876,
  "Only": 3877,
  "production": 3878,
  "wenty": 3879,
  "dete": 3880,
  "moral": 3881,
  "managers": 3882,
  "Grand": 3883,
  "delay": 3884,
  "struct": 3885,
  "policies": 3886,
  "homa": 3887,
  "walked": 3888,
  "promise": 3889,
  "supported": 3890,
  "Jane": 3891,
  "January": 3892,
  "capital": 3893,
  "hoped": 3894,
  "signific": 3895,
  "largely": 3896,
  "Bron": 3897,
  "Franklin": 3898,
  "Yankee": 3899,
  "Calif": 3900,
  "bankers": 3901,
  "dancing": 3902,
  "Belgian": 3903,
  "steps": 3904,
  "established": 3905,
  "transportation": 3906,
  "favorite": 3907,
  "Geraghty": 3908,
  "authority": 3909,
  "competition": 3910,
  "Raymond": 3911,
  "fighting": 3912,
  "representing": 3913,
  "telephone": 3914,
  "practice": 3915,
  "Barnes": 3916,
  "Place": 3917,
  "houses": 3918,
  "treas": 3919,
  "strokes": 3920,
  "assistance": 3921,
  "appointed": 3922,
  "dedu": 3923,
  "errors": 3924,
  "legislative": 3925,
  "legislators": 3926,
  "Donald": 3927,
  "poor": 3928,
  "accident": 3929,
  "accused": 3930,
  "conducted": 3931,
  "writers": 3932,
  "crowd": 3933,
  "contributions": 3934,
  "approved": 3935,
  "Daniel": 3936,
  "filled": 3937,
  "usual": 3938,
  "completed": 3939,
  "suggested": 3940,
  "Foreign": 3941,
  "Illino": 3942,
  "Paul": 3943,
  "trouble": 3944,
  "Libr": 3945,
  "potato": 3946,
  "piece": 3947,
  "stream": 3948,
  "achievement": 3949,
  "strength": 3950,
  "carried": 3951,
  "Scott": 3952,
  "narcot": 3953,
  "neighbor": 3954,
  "Commissioner": 3955,
  "believes": 3956,
  "Hemphill": 3957,
  "aurant": 3958,
  "figure": 3959,
  "ninth": 3960,
  "determin": 3961,
  "benefit": 3962,
  "Africa": 3963,
  "Pirates": 3964,
  "picture": 3965,
  "rapid": 3966,
  "reduce": 3967,
  "definite": 3968,
  "delivered": 3969,
  "families": 3970,
  "traditional": 3971,
  "spokesman": 3972,
  "Oklahoma": 3973,
  "Chairman": 3974,
  "victim": 3975,
  "supplies": 3976,
  "Stephen": 3977,
  "different": 3978,
  "Virginia": 3979,
  "Drexel": 3980,
  "Foods": 3981,
  "Latin": 3982,
  "Pennsylvania": 3983,
  "Women": 3984,
  "exactly": 3985,
  "ADC": 3986,
  "Castro": 3987,
  "Karns": 3988,
  "London": 3989,
  "birth": 3990,
  "wrote": 3991,
  "records": 3992,
  "Phoenix": 3993,
  "Illinois": 3994,
  "'d": 3995,
  "33": 3996,
  "67": 3997,
  "800": 3998,
  "Ale": 3999,
  "Aud": 4000,
  "Award": 4001,
  "Amb": 4002,
  "Bow": 4003,
  "Bud": 4004,
  "Bef": 4005,
  "Bever": 4006,
  "Brown": 4007,
  "CD": 4008,
  "Cli": 4009,
  "Cran": 4010,
  "Cinc": 4011,
  "Dou": 4012,
  "Fri": 4013,
  "Fair": 4014,
  "Foot": 4015,
  "Good": 4016,
  "Greg": 4017,
  "Governor": 4018,
  "Ho": 4019,
  "Hal": 4020,
  "Hay": 4021,
  "Lu": 4022,
  "Ly": 4023,
  "MU": 4024,
  "Mer": 4025,
  "Mill": 4026,
  "Nassa": 4027,
  "Out": 4028,
  "Public": 4029,
  "Pier": 4030,
  "Rel": 4031,
  "Rice": 4032,
  "Railroad": 4033,
  "Squ": 4034,
  "Sup": 4035,
  "Six": 4036,
  "Santa": 4037,
  "Spa": 4038,
  "Shaw": 4039,
  "SMU": 4040,
  "TV": 4041,
  "Tun": 4042,
  "Tur": 4043,
  "Town": 4044,
  "Tax": 4045,
  "Tech": 4046,
  "Van": 4047,
  "Wall": 4048,
  "Wend": 4049,
  "Well": 4050,
  "Yet": 4051,
  "Young": 4052,
  "bought": 4053,
  "bund": 4054,
  "cold": 4055,
  "cause": 4056,
  "cross": 4057,
  "dam": 4058,
  "dens": 4059,
  "een": 4060,
  "eigh": 4061,
  "east": 4062,
  "fly": 4063,
  "gent": 4064,
  "gment": 4065,
  "gown": 4066,
  "gather": 4067,
  "gains": 4068,
  "har": 4069,
  "host": 4070,
  "iat": 4071,
  "jet": 4072,
  "jail": 4073,
  "kel": 4074,
  "kansas": 4075,
  "lad": 4076,
  "los": 4077,
  "leng": 4078,
  "mom": 4079,
  "mine": 4080,
  "mob": 4081,
  "mult": 4082,
  "none": 4083,
  "nell": 4084,
  "names": 4085,
  "native": 4086,
  "nature": 4087,
  "oke": 4088,
  "pain": 4089,
  "rid": 4090,
  "ray": 4091,
  "rac": 4092,
  "sof": 4093,
  "ses": 4094,
  "sac": 4095,
  "sop": 4096,
  "sports": 4097,
  "source": 4098,
  "til": 4099,
  "tast": 4100,
  "trem": 4101,
  "uous": 4102,
  "uable": 4103,
  "vard": 4104,
  "warm": 4105,
  "wants": 4106,
  "warn": 4107,
  "yers": 4108,
  "yield": 4109,
  "iny": 4110,
  "inqu": 4111,
  "inces": 4112,
  "inental": 4113,
  "ont": 4114,
  "oned": 4115,
  "ati": 4116,
  "reli": 4117,
  "reaction": 4118,
  "edom": 4119,
  "orial": 4120,
  "aries": 4121,
  "always": 4122,
  "oute": 4123,
  "assu": 4124,
  "icle": 4125,
  "ionally": 4126,
  "ilos": 4127,
  "enton": 4128,
  "lect": 4129,
  "chip": 4130,
  "chance": 4131,
  "admission": 4132,
  "seen": 4133,
  "below": 4134,
  "roit": 4135,
  "ols": 4136,
  "acre": 4137,
  "accompl": 4138,
  "lywood": 4139,
  "amed": 4140,
  "amend": 4141,
  "amateur": 4142,
  "unte": 4143,
  "urban": 4144,
  "eler": 4145,
  "ette": 4146,
  "agree": 4147,
  "utch": 4148,
  "resh": 4149,
  "resist": 4150,
  "convent": 4151,
  "constant": 4152,
  "consecut": 4153,
  "conflict": 4154,
  "emen": 4155,
  "alled": 4156,
  "proced": 4157,
  "proceed": 4158,
  "produced": 4159,
  "tered": 4160,
  "rip": 4161,
  "ries": 4162,
  "rive": 4163,
  "ula": 4164,
  "ulf": 4165,
  "deed": 4166,
  "defe": 4167,
  "suffic": 4168,
  "mentary": 4169,
  "manner": 4170,
  "apt": 4171,
  "ources": 4172,
  "lied": 4173,
  "ocal": 4174,
  "endous": 4175,
  "ques": 4176,
  "trend": 4177,
  "hase": 4178,
  "weap": 4179,
  "weak": 4180,
  "weather": 4181,
  "noted": 4182,
  "notice": 4183,
  "pra": 4184,
  "clock": 4185,
  "perform": 4186,
  "ublish": 4187,
  "Steng": 4188,
  "acks": 4189,
  "ials": 4190,
  "box": 4191,
  "bogey": 4192,
  "fect": 4193,
  "llan": 4194,
  "oked": 4195,
  "bright": 4196,
  "attention": 4197,
  "avitt": 4198,
  "typ": 4199,
  "mont": 4200,
  "ucks": 4201,
  "counsel": 4202,
  "chose": 4203,
  "Any": 4204,
  "Another": 4205,
  "iction": 4206,
  "idea": 4207,
  "corner": 4208,
  "corps": 4209,
  "partner": 4210,
  "therefore": 4211,
  "oblig": 4212,
  "phys": 4213,
  "philos": 4214,
  "workshop": 4215,
  "Commerce": 4216,
  "annon": 4217,
  "somewhat": 4218,
  "residential": 4219,
  "Marr": 4220,
  "discrimin": 4221,
  "aked": 4222,
  "Leavitt": 4223,
  "highway": 4224,
  "greet": 4225,
  "sett": 4226,
  "Ala": 4227,
  "rene": 4228,
  "innati": 4229,
  "Asia": 4230,
  "paying": 4231,
  "scene": 4232,
  "Johnston": 4233,
  "1956": 4234,
  "1957": 4235,
  "talent": 4236,
  "talking": 4237,
  "formally": 4238,
  "parade": 4239,
  "gene": 4240,
  "Art": 4241,
  "Arkansas": 4242,
  "built": 4243,
  "guard": 4244,
  "cuts": 4245,
  "conditions": 4246,
  "factor": 4247,
  "factory": 4248,
  "votes": 4249,
  "voting": 4250,
  "studied": 4251,
  "Country": 4252,
  "Room": 4253,
  "Road": 4254,
  "Texans": 4255,
  "learn": 4256,
  "learned": 4257,
  "learning": 4258,
  "pedest": 4259,
  "goods": 4260,
  "volunte": 4261,
  "curred": 4262,
  "matching": 4263,
  "slight": 4264,
  "changed": 4265,
  "ugg": 4266,
  "bases": 4267,
  "defensive": 4268,
  "testified": 4269,
  "McCle": 4270,
  "driver": 4271,
  "atorial": 4272,
  "produce": 4273,
  "Clint": 4274,
  "Harvey": 4275,
  "useum": 4276,
  "looking": 4277,
  "doubled": 4278,
  "expense": 4279,
  "expenses": 4280,
  "helping": 4281,
  "Pratt": 4282,
  "Prince": 4283,
  "industrial": 4284,
  "wonder": 4285,
  "Edward": 4286,
  "patient": 4287,
  "surpr": 4288,
  "investors": 4289,
  "teachers": 4290,
  "Berger": 4291,
  "rising": 4292,
  "Brand": 4293,
  "Carl": 4294,
  "happened": 4295,
  "complex": 4296,
  "farmers": 4297,
  "ruling": 4298,
  "filed": 4299,
  "Allen": 4300,
  "batting": 4301,
  "popular": 4302,
  "machines": 4303,
  "Execut": 4304,
  "terms": 4305,
  "establishment": 4306,
  "Cuban": 4307,
  "selling": 4308,
  "authorities": 4309,
  "Morris": 4310,
  "Patric": 4311,
  "practices": 4312,
  "Martinelli": 4313,
  "Salem": 4314,
  "balance": 4315,
  "ballet": 4316,
  "stroke": 4317,
  "champions": 4318,
  "stitute": 4319,
  "Hollywood": 4320,
  "advisers": 4321,
  "ievement": 4322,
  "entertainment": 4323,
  "Maryland": 4324,
  "coalition": 4325,
  "Elect": 4326,
  "Society": 4327,
  "closely": 4328,
  "Augusta": 4329,
  "Peter": 4330,
  "modest": 4331,
  "apparent": 4332,
  "wrong": 4333,
  "deadlock": 4334,
  "technical": 4335,
  "eye": 4336,
  "understanding": 4337,
  "Benington": 4338,
  "Forest": 4339,
  "penal": 4340,
  "beginning": 4341,
  "troubles": 4342,
  "credit": 4343,
  "Continental": 4344,
  "pieces": 4345,
  "argued": 4346,
  "improvement": 4347,
  "debate": 4348,
  "sponsor": 4349,
  "sponsored": 4350,
  "streets": 4351,
  "processing": 4352,
  "witnesses": 4353,
  "simply": 4354,
  "mentioned": 4355,
  "exhibition": 4356,
  "corporation": 4357,
  "Garden": 4358,
  "Memorial": 4359,
  "Music": 4360,
  "challen": 4361,
  "connection": 4362,
  "commented": 4363,
  "delegates": 4364,
  "climate": 4365,
  "monopoly": 4366,
  "Simpkins": 4367,
  "suffered": 4368,
  "ustrated": 4369,
  "pretty": 4370,
  "taxpayers": 4371,
  "distribution": 4372,
  "Detroit": 4373,
  "Super": 4374,
  "twice": 4375,
  "ometimes": 4376,
  "conservative": 4377,
  "Achievement": 4378,
  "customers": 4379,
  "thousands": 4380,
  "prospects": 4381,
  "recognized": 4382,
  "Hodges": 4383,
  "message": 4384,
  "mphony": 4385,
  "injured": 4386,
  "atomic": 4387,
  "advanced": 4388,
  "advertising": 4389,
  "substantial": 4390,
  "detect": 4391,
  "treasurer": 4392,
  "Library": 4393,
  "Before": 4394,
  "Beverly": 4395,
  "Cranston": 4396,
  "Cincinnati": 4397,
  "Nassau": 4398,
  "Spahn": 4399,
  "Wendell": 4400,
  "tremendous": 4401,
  "consecutive": 4402,
  "Stengel": 4403,
  "philosop": 4404,
  "McClellan": 4405,
  "Patricia": 4406,
  "49": 4407,
  "51": 4408,
  "71": 4409,
  "72": 4410,
  "Au": 4411,
  "Ba": 4412,
  "Ball": 4413,
  "Boy": 4414,
  "Baker": 4415,
  "Cir": 4416,
  "Chest": 4417,
  "Du": 4418,
  "Dol": 4419,
  "Div": 4420,
  "Def": 4421,
  "Dread": 4422,
  "Er": 4423,
  "Evan": 4424,
  "Fun": 4425,
  "Fire": 4426,
  "Fred": 4427,
  "Gin": 4428,
  "Gord": 4429,
  "Here": 4430,
  "Home": 4431,
  "Hong": 4432,
  "Hunt": 4433,
  "Ki": 4434,
  "Kong": 4435,
  "Kern": 4436,
  "Lon": 4437,
  "Lar": 4438,
  "Liston": 4439,
  "Local": 4440,
  "Mad": 4441,
  "Met": 4442,
  "Mex": 4443,
  "Mass": 4444,
  "Mult": 4445,
  "Navy": 4446,
  "Oper": 4447,
  "Oak": 4448,
  "Off": 4449,
  "Olive": 4450,
  "Open": 4451,
  "Pow": 4452,
  "Sto": 4453,
  "Sand": 4454,
  "Sav": 4455,
  "Sever": 4456,
  "Since": 4457,
  "Sports": 4458,
  "Time": 4459,
  "Ver": 4460,
  "Wex": 4461,
  "aer": 4462,
  "bare": 4463,
  "bri": 4464,
  "bors": 4465,
  "cum": 4466,
  "cited": 4467,
  "cities": 4468,
  "citizens": 4469,
  "camer": 4470,
  "cultural": 4471,
  "dut": 4472,
  "diss": 4473,
  "dance": 4474,
  "divid": 4475,
  "dental": 4476,
  "drew": 4477,
  "eing": 4478,
  "fan": 4479,
  "flat": 4480,
  "fired": 4481,
  "gam": 4482,
  "gun": 4483,
  "gub": 4484,
  "hor": 4485,
  "hun": 4486,
  "hur": 4487,
  "hill": 4488,
  "ias": 4489,
  "ju": 4490,
  "jan": 4491,
  "ket": 4492,
  "lamp": 4493,
  "laid": 4494,
  "liter": 4495,
  "ms": 4496,
  "mater": 4497,
  "mood": 4498,
  "nut": 4499,
  "nought": 4500,
  "navy": 4501,
  "pian": 4502,
  "pace": 4503,
  "plead": 4504,
  "penn": 4505,
  "paint": 4506,
  "rare": 4507,
  "rant": 4508,
  "ride": 4509,
  "rational": 4510,
  "rings": 4511,
  "rical": 4512,
  "sound": 4513,
  "sens": 4514,
  "sought": 4515,
  "sitting": 4516,
  "tally": 4517,
  "tied": 4518,
  "treat": 4519,
  "twenty": 4520,
  "uer": 4521,
  "uals": 4522,
  "wing": 4523,
  "wore": 4524,
  "yle": 4525,
  "za": 4526,
  "inet": 4527,
  "incent": 4528,
  "instru": 4529,
  "eries": 4530,
  "theaters": 4531,
  "onse": 4532,
  "onstr": 4533,
  "enact": 4534,
  "enthus": 4535,
  "atures": 4536,
  "ref": 4537,
  "repl": 4538,
  "reds": 4539,
  "revol": 4540,
  "remember": 4541,
  "reply": 4542,
  "rebel": 4543,
  "orf": 4544,
  "stick": 4545,
  "story": 4546,
  "stress": 4547,
  "stole": 4548,
  "stances": 4549,
  "arrang": 4550,
  "ala": 4551,
  "altern": 4552,
  "oul": 4553,
  "ases": 4554,
  "aside": 4555,
  "assemb": 4556,
  "itation": 4557,
  "ications": 4558,
  "heav": 4559,
  "heister": 4560,
  "entions": 4561,
  "entures": 4562,
  "leag": 4563,
  "lebr": 4564,
  "chosen": 4565,
  "ida": 4566,
  "idel": 4567,
  "ades": 4568,
  "seld": 4569,
  "secret": 4570,
  "segregation": 4571,
  "bell": 4572,
  "belong": 4573,
  "forth": 4574,
  "veland": 4575,
  "une": 4576,
  "univers": 4577,
  "unless": 4578,
  "elson": 4579,
  "ows": 4580,
  "owsk": 4581,
  "resum": 4582,
  "resources": 4583,
  "ctors": 4584,
  "cease": 4585,
  "celebr": 4586,
  "confer": 4587,
  "consc": 4588,
  "confirm": 4589,
  "convin": 4590,
  "convert": 4591,
  "allot": 4592,
  "neck": 4593,
  "prop": 4594,
  "progress": 4595,
  "terian": 4596,
  "arey": 4597,
  "ateg": 4598,
  "ples": 4599,
  "plate": 4600,
  "ulpt": 4601,
  "byterian": 4602,
  "sumer": 4603,
  "tees": 4604,
  "ears": 4605,
  "saving": 4606,
  "safet": 4607,
  "export": 4608,
  "express": 4609,
  "exports": 4610,
  "frank": 4611,
  "lip": 4612,
  "liqu": 4613,
  "shr": 4614,
  "essential": 4615,
  "true": 4616,
  "trucks": 4617,
  "ghorn": 4618,
  "active": 4619,
  "actions": 4620,
  "proud": 4621,
  "1927": 4622,
  "permit": 4623,
  "Stone": 4624,
  "worse": 4625,
  "Inn": 4626,
  "umped": 4627,
  "iple": 4628,
  "inted": 4629,
  "intentions": 4630,
  "assign": 4631,
  "assador": 4632,
  "ureau": 4633,
  "compar": 4634,
  "compens": 4635,
  "compared": 4636,
  "attle": 4637,
  "create": 4638,
  "created": 4639,
  "centers": 4640,
  "century": 4641,
  "maid": 4642,
  "maker": 4643,
  "aving": 4644,
  "spread": 4645,
  "poses": 4646,
  "positions": 4647,
  "doz": 4648,
  "doors": 4649,
  "choice": 4650,
  "log": 4651,
  "loans": 4652,
  "cook": 4653,
  "correspond": 4654,
  "parts": 4655,
  "thanks": 4656,
  "prefer": 4657,
  "underwater": 4658,
  "triumph": 4659,
  "speaking": 4660,
  "residents": 4661,
  "balls": 4662,
  "chec": 4663,
  "check": 4664,
  "ulture": 4665,
  "apped": 4666,
  "apply": 4667,
  "Allied": 4668,
  "courts": 4669,
  "provides": 4670,
  "erner": 4671,
  "ernatorial": 4672,
  "sculpt": 4673,
  "larger": 4674,
  "visit": 4675,
  "presentation": 4676,
  "formula": 4677,
  "parents": 4678,
  "parole": 4679,
  "affair": 4680,
  "Arts": 4681,
  "Coach": 4682,
  "Lao": 4683,
  "mayor": 4684,
  "jection": 4685,
  "stands": 4686,
  "collected": 4687,
  "starting": 4688,
  "passes": 4689,
  "direction": 4690,
  "supply": 4691,
  "Dean": 4692,
  "volume": 4693,
  "teams": 4694,
  "150": 4695,
  "singled": 4696,
  "putt": 4697,
  "expects": 4698,
  "Book": 4699,
  "located": 4700,
  "chairs": 4701,
  "knows": 4702,
  "imple": 4703,
  "buildings": 4704,
  "Shop": 4705,
  "organized": 4706,
  "Grant": 4707,
  "honors": 4708,
  "isms": 4709,
  "roller": 4710,
  "Charlie": 4711,
  "continu": 4712,
  "resulted": 4713,
  "patrol": 4714,
  "surprise": 4715,
  "valued": 4716,
  "valuable": 4717,
  "feels": 4718,
  "Berry": 4719,
  "machine": 4720,
  "Christmas": 4721,
  "demonstr": 4722,
  "holds": 4723,
  "Carol": 4724,
  "bedroom": 4725,
  "Orchestra": 4726,
  "moving": 4727,
  "movie": 4728,
  "pike": 4729,
  "concerts": 4730,
  "librarian": 4731,
  "covered": 4732,
  "petition": 4733,
  "petitions": 4734,
  "probation": 4735,
  "designer": 4736,
  "assault": 4737,
  "appeal": 4738,
  "appeals": 4739,
  "Express": 4740,
  "Jackson": 4741,
  "bankrupt": 4742,
  "closer": 4743,
  "certainly": 4744,
  "strip": 4745,
  "favorable": 4746,
  "Germany": 4747,
  "profit": 4748,
  "Highway": 4749,
  "Patr": 4750,
  "completely": 4751,
  "growing": 4752,
  "prior": 4753,
  "stopped": 4754,
  "Skip": 4755,
  "Walter": 4756,
  "Walker": 4757,
  "various": 4758,
  "seeking": 4759,
  "confidence": 4760,
  "280": 4761,
  "bench": 4762,
  "keeping": 4763,
  "conductor": 4764,
  "Annapolis": 4765,
  "currently": 4766,
  "flex": 4767,
  "kicked": 4768,
  "watch": 4769,
  "extending": 4770,
  "experience": 4771,
  "Eugene": 4772,
  "Wilson": 4773,
  "critical": 4774,
  "Cleveland": 4775,
  "Jerry": 4776,
  "friend": 4777,
  "glas": 4778,
  "hotels": 4779,
  "maintain": 4780,
  "solid": 4781,
  "itorium": 4782,
  "meaning": 4783,
  "spoken": 4784,
  "touchdown": 4785,
  "judges": 4786,
  "encouraging": 4787,
  "stayed": 4788,
  "claimed": 4789,
  "credited": 4790,
  "obtained": 4791,
  "discussed": 4792,
  "girls": 4793,
  "argument": 4794,
  "debentures": 4795,
  "strengthen": 4796,
  "England": 4797,
  "English": 4798,
  "Cotton": 4799,
  "dynam": 4800,
  "kids": 4801,
  "purchase": 4802,
  "neighbors": 4803,
  "quickly": 4804,
  "simple": 4805,
  "restrict": 4806,
  "impression": 4807,
  "respect": 4808,
  "existence": 4809,
  "precedent": 4810,
  "specific": 4811,
  "specified": 4812,
  "Brooks": 4813,
  "Brooklyn": 4814,
  "satisf": 4815,
  "original": 4816,
  "human": 4817,
  "liberal": 4818,
  "Chapman": 4819,
  "ceremonies": 4820,
  "Helen": 4821,
  "cocktail": 4822,
  "nomination": 4823,
  "ticket": 4824,
  "recommendations": 4825,
  "Socialist": 4826,
  "excellent": 4827,
  "Bernard": 4828,
  "Casey": 4829,
  "Clark": 4830,
  "Royal": 4831,
  "vivors": 4832,
  "beautiful": 4833,
  "robber": 4834,
  "regarded": 4835,
  "participation": 4836,
  "Buckley": 4837,
  "Turnpike": 4838,
  "frequently": 4839,
  "nomah": 4840,
  "sessions": 4841,
  "educational": 4842,
  "congressional": 4843,
  "emergency": 4844,
  "ournal": 4845,
  "correct": 4846,
  "Leonard": 4847,
  "retirement": 4848,
  "historic": 4849,
  "knocked": 4850,
  "automatic": 4851,
  "relatively": 4852,
  "integration": 4853,
  "Buchheister": 4854,
  "Clayton": 4855,
  "Jenkins": 4856,
  "Kelsey": 4857,
  "Presbyterian": 4858,
  "nursing": 4859,
  "natural": 4860,
  "suddenly": 4861,
  "apartments": 4862,
  "Italian": 4863,
  "decisions": 4864,
  "reduced": 4865,
  "Columbus": 4866,
  "narcotics": 4867,
  "rapidly": 4868,
  "Alex": 4869,
  "Ambassador": 4870,
  "Douglas": 4871,
  "Football": 4872,
  "Tunis": 4873,
  "length": 4874,
  "moment": 4875,
  "sacrif": 4876,
  "weapons": 4877,
  "Executive": 4878,
  "challenge": 4879,
  "detectives": 4880,
  "philosophy": 4881,
  "Dreadnought": 4882,
  "Evanston": 4883,
  "Gordon": 4884,
  "Longhorn": 4885,
  "Multnomah": 4886,
  "Powell": 4887,
  "Stock": 4888,
  "Wexler": 4889,
  "brief": 4890,
  "gubernatorial": 4891,
  "convinced": 4892,
  "32": 4893,
  "36": 4894,
  "44": 4895,
  "48": 4896,
  "56": 4897,
  "57": 4898,
  "68": 4899,
  "90": 4900,
  "AH": 4901,
  "AI": 4902,
  "Ari": 4903,
  "Apart": 4904,
  "Arun": 4905,
  "BI": 4906,
  "Bay": 4907,
  "Bus": 4908,
  "Bible": 4909,
  "Bellow": 4910,
  "CO": 4911,
  "Card": 4912,
  "Cerv": 4913,
  "Citizens": 4914,
  "Carey": 4915,
  "Dw": 4916,
  "Dis": 4917,
  "Dres": 4918,
  "Dame": 4919,
  "Dann": 4920,
  "During": 4921,
  "Eag": 4922,
  "Fin": 4923,
  "Fer": 4924,
  "Far": 4925,
  "Fall": 4926,
  "Ford": 4927,
  "FBI": 4928,
  "GO": 4929,
  "Glim": 4930,
  "Golf": 4931,
  "Gulf": 4932,
  "Gannon": 4933,
  "Hun": 4934,
  "Hutch": 4935,
  "Im": 4936,
  "Je": 4937,
  "Jap": 4938,
  "Ke": 4939,
  "Kat": 4940,
  "Kro": 4941,
  "Kee": 4942,
  "Lam": 4943,
  "Lock": 4944,
  "Larson": 4945,
  "Lady": 4946,
  "Lloy": 4947,
  "Ma": 4948,
  "Mid": 4949,
  "Main": 4950,
  "Must": 4951,
  "Mau": 4952,
  "Minn": 4953,
  "Mered": 4954,
  "Mull": 4955,
  "Mmes": 4956,
  "NE": 4957,
  "Nair": 4958,
  "Oil": 4959,
  "Our": 4960,
  "Oreg": 4961,
  "Others": 4962,
  "Offic": 4963,
  "Oslo": 4964,
  "PI": 4965,
  "Pac": 4966,
  "Pel": 4967,
  "Post": 4968,
  "Ros": 4969,
  "Rome": 4970,
  "Rick": 4971,
  "Rite": 4972,
  "Reven": 4973,
  "Sc": 4974,
  "Som": 4975,
  "Slate": 4976,
  "Sulli": 4977,
  "TC": 4978,
  "Tar": 4979,
  "Tut": 4980,
  "Tsh": 4981,
  "Tell": 4982,
  "Temp": 4983,
  "Tenn": 4984,
  "Terry": 4985,
  "UPI": 4986,
  "Var": 4987,
  "Vick": 4988,
  "Vita": 4989,
  "Win": 4990,
  "Work": 4991,
  "Werner": 4992,
  "Year": 4993,
  "ae": 4994,
  "blo": 4995,
  "bail": 4996,
  "boss": 4997,
  "bounced": 4998,
  "cers": 4999
}
